Conv_41_param_0 83.559067 348.130219 65.533325 102.676117 60.822586 60.123554 257.459137 175.116821 225.322952 75.061745 268.430939 72.483566 473.087280 204.112549 163.092972 43.121277 47.674717 58.719990 156.738632 59.925354 169.456451 389.160522 78.444534 370.544159 64.158676 40.635765 196.885773 58.697533 101.658516 59.030746 38.687508 83.100014
Conv_44_param_0 793.527222 224.201370 308.833435 391.499908 170.905304 552.972351 831.557678 660.091248 656.018250 871.903137 692.151428 532.431335 639.496521 504.548645 286.976959 243.834320 795.048523 457.811340 836.030396 930.281555 739.415894 519.810486 250.503937 631.921326 444.363434 505.445099 694.752014 628.166809 388.698853 605.667358 561.980530 397.282410 559.849182 311.255219 917.395142 491.862030 543.000305 236.642410 627.728271 507.216248 206.173462 536.319946 349.833618 890.768005 874.553894 629.864929 605.326294 575.622864 858.421387 731.037354 939.930847 664.354370 705.353149 523.231995 616.720886 324.593231 574.263428 673.901917 859.285583 260.329254 468.308746 530.773865 406.193726 593.842285
Conv_47_param_0 294.688477 228.419495 240.623596 296.658325 292.453064 287.749390 291.751740 178.625671 154.412354 120.265358 208.931274 225.908966 144.255585 309.390015 194.417770 277.112915 323.322571 299.231506 206.570618 298.848816 182.144638 273.075897 285.768921 247.614182 154.130417 316.998322 278.715271 291.190338 232.727402 297.397217 286.752014 251.548065
Conv_50_param_0 250.790985 291.304413 238.818604 156.492020 386.265167 296.960419 125.717628 272.927124 358.961121 161.743164 147.898254 104.512604 326.174500 256.973755 114.342957 255.369339 226.242767 291.282593 309.092285 264.998535 197.049271 195.702148 188.771790 321.214996 393.670563 165.873779 302.983887 325.058990 321.093048 154.479919 168.346436 334.509277
Conv_53_param_0 156.952103 139.328461 134.245010 176.089233 144.616562 202.638504 147.496536 187.125961 136.176849 153.473602 207.254395 159.814484 179.790253 164.651672 146.422073 168.028625 116.266289 139.729019 196.733231 158.725586 287.690918 151.664398 158.499908 253.640549 164.091812 96.727547 131.221527 196.197159 155.684311 170.015930 133.116882 128.285355
Conv_56_param_0 157.402588 77.499039 81.366035 68.621887 100.589676 71.685654 84.042969 108.853455 91.735489 61.902901 76.146194 89.205063 75.598915 84.488213 99.104675 133.537888 110.851624 98.397934 107.149300 42.090656 81.207199 72.877960 101.741302 100.580215 80.939224 93.702156 92.041061 85.576736 71.411880 78.527718 85.385780 123.692337
Conv_61_param_0 204.861252 335.059113 354.575653 237.844955 320.111328 211.865021 318.846161 279.738708 182.305389 422.510651 166.230286 309.228149 195.223434 350.638672 230.345688 335.787659 272.544250 201.409698 297.711395 338.424316 250.890686 250.296906 396.866547 349.716675 103.660965 333.716553 222.971970 179.661240 383.141357 245.594894 264.649689 410.674805 270.706299 229.009277 305.388916 166.180115 256.237610 318.321533 219.257523 299.787476 299.051636 267.165924 294.550964 225.473495 372.966217 146.114349 176.005585 344.651367 278.592255 267.289886 270.051086 182.204254 298.023285 299.969604 244.800842 351.917389 279.016846 265.720490 308.649811 394.988953 429.341980 228.966415 188.417999 332.144531
Conv_64_param_0 716.781860 1177.046753 1345.818115 1147.638794 815.951538 1264.821533 609.327026 683.576477 951.619019 858.207703 932.951416 962.221924 913.250793 749.665771 1096.080078 1279.276978 1073.961182 1014.345886 681.497192 957.785278 1667.399170 1202.437866 1095.372070 1146.336792 952.709351 1042.396606 1599.248169 923.829773 1266.192993 654.537781 830.238281 715.181946 905.521912 1323.950562 1014.423645 842.975647 882.763916 939.035889 631.294556 713.282898 1221.173584 1162.569824 719.328369 888.018250 759.645691 954.163879 1437.323364 903.020874 1007.465637 1011.633423 715.115662 814.234741 640.313416 1201.206665 732.393982 1404.302734 1816.783081 876.330139 1083.663818 574.231262 1293.995483 935.371216 922.993225 814.681641 918.102844 922.296204 1277.426392 832.444580 705.461792 1009.755554 744.150146 1003.038330 643.740417 913.815247 925.633301 801.963562 487.628906 797.169617 813.023499 582.608398 981.779846 1096.862671 1199.388794 923.573303 804.940918 1026.152710 753.630005 1098.016724 835.345032 956.674500 1313.044067 1426.244629 892.503967 1064.982666 742.460815 940.695740 1051.261475 1194.407471 1166.729980 1078.014282 939.555542 822.615906 728.571777 872.050781 960.247437 1016.997864 1335.458496 923.972473 1028.710571 848.169556 830.004639 794.296448 889.896912 1183.378174 868.047729 538.660889 1233.722290 973.042725 890.261292 816.129211 707.954285 699.778809 978.900757 965.211670 986.260559 1165.925293 798.653015 943.612915
Conv_67_param_0 560.177673 350.805695 339.039368 489.316345 345.051147 467.003326 593.304016 375.910126 533.002319 574.757996 512.087952 386.636444 419.318634 559.349670 339.206146 607.807495 227.037781 561.248657 407.731049 474.251038 628.366394 567.301697 614.362122 515.162170 477.799377 473.589600 458.445557 471.340912 469.504883 435.788879 644.793030 694.428101 523.585144 352.222900 420.227020 483.876953 626.826782 516.271240 614.576538 468.491211 347.122894 360.369568 402.401062 702.985535 600.051208 498.912018 511.621643 626.471863 618.992920 388.443787 404.085693 523.001953 535.236084 286.297943 592.763428 521.603943 698.961182 690.341064 340.605743 482.641479 624.253967 541.669983 467.231964 446.038391
Conv_70_param_0 368.410553 417.705109 344.196625 356.918365 331.639587 342.094116 199.823257 354.663177 390.117462 201.432953 327.492767 303.706268 354.124908 285.555664 334.198273 288.836273 376.926788 200.182236 358.836609 327.223846 189.007782 302.618500 294.523651 278.445343 420.680847 365.372437 355.357727 258.054688 327.576538 237.112869 351.047485 302.380280 285.790710 272.012024 286.764526 548.182312 350.830292 325.394592 397.376221 395.599640 372.593567 322.313324 364.574554 495.853058 307.721405 498.227325 516.008789 249.400024 326.541382 302.265656 297.140900 265.046082 356.962067 310.882446 215.159714 392.177643 250.754120 442.748199 167.093262 586.411255 423.887207 187.420364 326.142517 259.662231
Conv_73_param_0 269.358032 216.822739 299.228912 229.184402 310.063812 324.218109 238.156998 353.027740 282.687164 263.780121 241.069305 255.594040 209.693710 211.810944 229.717026 239.429565 199.027832 329.425415 189.574554 250.099854 167.128098 278.053101 215.054764 243.783127 285.408112 271.170227 260.898468 179.406464 249.590851 308.614624 268.228973 246.933350 326.845337 271.727264 210.129303 281.933838 242.873123 225.583618 383.409241 194.398376 323.094604 243.431381 275.897980 310.715515 226.852676 238.129410 332.679535 277.265991 71.341156 299.016449 263.451416 253.749374 81.476639 259.722321 219.567825 253.176575 214.439041 274.482330 372.052856 175.683014 275.729462 240.139099 293.896881 186.122833
Conv_76_param_0 341.603424 212.390518 231.255951 182.279907 114.464661 234.283722 277.848206 180.772034 243.740723 168.818466 185.685669 181.360855 228.257614 207.990265 234.058365 248.636749 285.283417 159.654541 250.666397 225.861282 153.171738 248.626602 241.680161 170.639893 167.590485 177.263519 127.292145 287.315247 178.726547 223.103638 241.304016 136.795105 415.879944 274.168152 286.562988 231.458496 297.413025 199.509033 277.500977 262.531525 190.474792 179.733932 224.959808 222.517822 295.227386 160.582336 195.226624 189.175186 253.241943 239.266495 245.286194 175.694153 201.353195 248.866196 307.503998 283.044800 212.539474 220.624313 282.032532 159.675415 160.254135 193.730789 178.251038 194.773682
Conv_80_param_0 412.717041 302.864075 330.113495 415.020477 252.544724 367.115662 279.053253 290.035614 383.138062 292.473969 285.423309 262.610504 452.012604 190.389160 310.868347 285.411163 351.221649 282.160645 374.999054 265.202911 296.488770 419.810852 260.223541 212.233215 358.328735 341.952789 298.420074 309.990906 332.408051 252.545227 366.625977 346.890717 254.363327 253.951218 312.347168 246.196655 239.420181 265.541504 319.749329 304.772980 263.914124 324.952393 293.524597 273.449493 319.201172 264.015839 325.826538 374.811737 318.328979 309.176849 311.425293 280.155701 334.994629 402.227020 329.760223 323.561920 329.539948 274.737549 221.667023 228.620728 302.596924 283.023438 209.032410 304.386566
Conv_83_param_0 252.971588 176.029877 213.373215 174.862610 193.104858 158.311417 207.556778 136.498184 190.920029 137.386810 118.538338 182.121277 177.762314 139.396683 214.438812 173.727905 185.310333 201.189301 253.714111 217.211075 151.356689 232.364716 231.584091 208.927933 178.236420 188.766327 117.904015 218.718948 207.911713 161.719833 119.303741 166.477859 205.517151 181.138611 152.922165 197.653625 262.730957 185.610626 287.507019 200.486542 220.962173 232.725861 125.715698 193.832977 335.947662 125.896927 214.575424 157.134628 197.049393 238.102661 190.551453 165.199265 186.580658 212.787323 201.509399 194.959763 219.092972 167.158325 266.083008 120.205208 196.515411 153.872681 130.973816 134.074356
Conv_87_param_0 350.969116 343.669250 326.192993 396.638885 440.279419 388.063354 308.286346 443.766205 429.749268 382.508240 438.843384 389.183990 417.003815 348.061432 474.145599 468.229156 373.674744 368.350067 458.456604 420.547546 349.310699 340.805298 431.843567 375.932495 441.606842 434.551605 360.432037 333.446075 347.485931 404.707611 389.027222 297.453674 438.764954 380.995117 427.035278 400.934814 457.165100 374.186279 312.359406 336.307098 405.327545 317.475464 339.077759 426.205902 373.758087 351.623901 386.758423 384.164246 300.921631 465.893402 378.029236 528.297607 426.110229 372.990723 336.824677 354.770996 330.539825 254.261887 300.178345 304.657776 273.134735 368.860168 300.891937 343.405762
Conv_90_param_0 168.122238 170.553253 185.298965 165.324188 128.942810 195.578217 148.007080 142.018478 166.199036 155.706146 156.792160 206.372650 160.642303 91.244789 220.797775 109.859566 190.578247 137.067230 134.826630 185.445190 174.006882 191.072174 171.858597 234.408218 167.430969 185.244019 93.071671 144.117264 198.098724 204.528763 159.571106 146.903015 217.700775 173.287537 156.179947 177.566681 131.125656 158.890976 257.780609 136.523926 175.016174 178.286240 185.363556 179.544403 233.732132 168.495575 154.673248 149.967926 163.843384 138.610565 124.479469 172.536224 210.022827 164.875992 190.618607 193.841919 197.460800 174.964188 184.860077 147.217789 158.314957 145.242981 204.235718 190.349686
Conv_95_param_0 420.389343 449.297394 539.640686 682.195435 831.901184 504.721283 537.234070 532.150940 526.575317 503.186432 537.385437 632.389954 479.932190 875.632568 684.729309 470.576874 668.801147 326.382812 450.785706 668.903748 612.788391 581.688599 549.095520 736.832886 560.437988 649.591919 713.857544 550.546448 405.569061 488.118378 529.634033 466.769501 637.355652 505.715240 483.552734 627.005188 571.046692 245.961868 539.779846 501.241425 503.714783 549.961060 483.242645 561.537170 543.993591 550.669006 313.179657 564.723022 615.046204 518.845337 550.856506 422.055298 562.415527 489.437500 548.362061 409.264984 440.803802 480.687714 439.688477 520.247314 550.078857 528.294128 579.114807 538.638184 479.155853 554.033691 523.792480 609.338440 503.294891 716.060913 607.119873 532.718811 458.939484 446.182526 659.064026 528.201416 678.079407 392.571167 519.732178 407.079285 619.523010 532.545410 596.757812 713.568481 634.427307 604.949097 612.766418 511.474762 641.453125 520.148926 531.946167 481.550385 420.606659 449.706543 523.698730 715.076538 641.265442 643.073425 520.791138 704.628235 584.046448 592.292969 341.336029 737.638611 750.496338 501.332397 525.387878 517.229858 620.271851 438.166687 643.729004 700.177551 311.078552 448.113953 420.133911 431.969147 521.987366 595.624390 476.030579 450.009613 480.451538 582.876404 601.148315 582.620911 677.906311 523.018066 303.480377 408.060791
Conv_98_param_0 1287.309204 1904.960327 1502.312256 1492.104614 2078.536377 1736.825684 1966.974487 1687.754639 1625.653687 1383.520996 1213.676758 1630.956665 2082.347168 1852.291382 1633.243042 2070.262207 1180.546753 1458.272095 1763.900146 1100.384277 1540.890137 1594.993164 1869.888184 1427.872681 1195.668335 1502.653320 1377.611328 1713.475708 994.159241 1785.388794 1715.493286 1248.482666 1312.854614 1184.551025 1854.060547 1378.754517 1551.060669 1607.284546 846.010498 1631.876221 1523.608032 1601.768188 1655.133057 1280.482300 1580.975830 1550.353394 2019.993042 1614.745483 1250.302856 1397.699951 1788.808960 1520.119751 1647.050171 1551.783203 1656.947266 1321.900391 1610.354370 1585.775146 1709.401367 1691.434082 1284.475220 1596.524048 1701.754028 1792.223389 1494.471680 1640.989136 1859.447021 1596.464722 2352.943848 1760.860962 2154.103027 1497.020264 1728.389038 2505.951660 1868.870605 1060.735474 1677.259155 1845.392456 1447.066650 1196.022461 1880.399658 2276.073975 1771.464844 1078.500000 1813.193237 1425.005859 1514.160156 1691.315430 2283.379883 1926.538574 1375.490356 1329.470215 927.580444 2136.248291 1802.269775 1773.172363 1671.611084 1209.157593 2006.461548 1298.592041 758.883240 1420.420288 1481.252197 1354.713501 1103.561890 1800.042847 1260.166016 1289.836914 1728.029663 1478.677246 944.640930 1577.385620 1356.839600 1675.849976 1795.108398 1299.583618 2151.041748 1696.582397 1410.018433 1839.662476 1189.476074 1532.298096 1386.376221 1919.923706 1225.538208 1488.091309 1368.430786 2036.515747 1558.993896 1434.918701 1710.154541 1427.096802 1708.189453 1393.729858 1112.209106 1374.932251 1370.390259 1466.627930 1474.895264 1311.198975 1874.495117 1692.694824 1938.480591 1443.128906 1717.926514 1464.675537 1386.350952 1229.857544 1429.756470 1061.574097 1713.238647 1484.370361 1581.698120 1826.012329 1964.831055 1195.591797 2115.434082 1265.708984 1551.247314 1371.448853 1602.856812 1409.811035 1138.240845 2036.896240 1669.814697 1866.443481 1902.110229 1500.795776 1578.408691 1501.382324 1620.872314 1796.030151 1274.690186 1257.992920 1285.433105 1220.694702 1559.283691 1776.162109 1589.721680 2087.071533 1668.423096 1764.829224 1189.377808 1449.698608 2170.097900 1258.684082 1015.496277 1594.801636 1377.018799 1619.397217 1430.664795 1392.263916 1833.628784 1747.403076 1329.454590 1162.841187 1466.516602 1279.110474 1766.336182 1670.361450 1471.390869 1584.516724 1228.193481 1619.924072 1515.584229 1127.554199 1523.552490 1019.601013 1375.072632 1059.251953 1712.287109 1239.081421 1889.371582 1294.229126 1304.390625 1525.233765 1658.137207 1326.242554 1806.066650 2207.133301 1495.345093 772.866943 1707.382812 1557.276245 1243.683838 1478.568604 1205.725098 1471.378174 1303.801514 1514.966797 1610.694580 1991.667603 1474.956543 1257.450195 1408.394287 1498.849121 1091.251343 1438.152588 2020.364990 1689.410034 1745.230469 1291.480225 1358.849609 1551.864258 1320.068604 1561.690186 1240.107422 1749.099487 1318.490356 1501.253906 1754.101318 1655.936279 1770.302734 1432.740112 823.845703 1583.044556
Conv_101_param_0 934.820068 591.192627 929.653198 1005.009338 756.775146 787.514465 842.235901 708.732056 598.855713 843.325073 788.520752 578.255066 934.857788 947.837402 686.653076 778.432983 852.765991 893.995972 843.607239 943.542603 808.551636 648.624390 854.438782 779.076782 1083.310913 619.987366 860.544739 1055.172241 1031.287476 888.321777 881.948792 608.161682 867.729126 563.155518 960.578613 1068.038818 795.297974 936.828857 921.922119 927.862854 836.483582 814.778015 705.249512 791.106384 756.555786 708.407410 790.924561 919.210876 938.757568 914.212830 670.629639 960.720520 858.402649 706.720154 677.127502 839.660278 1017.944275 827.558105 658.887512 947.794983 807.022522 938.248657 903.826965 1102.546265 552.962097 822.292175 610.862976 968.427673 1035.970459 1014.185303 610.984436 802.671997 954.702942 682.800598 1042.874268 1023.491821 863.741943 970.080078 807.579041 869.878967 676.294495 689.918274 915.613770 934.423340 844.154053 695.108765 996.740173 1098.978882 740.345703 895.166809 706.617432 963.538391 853.189270 465.766266 824.633545 774.865173 1013.157043 854.079590 577.538635 723.344604 783.457703 800.453857 830.211060 837.179810 653.796814 1381.873779 861.749023 1118.835571 908.959961 683.643860 866.403259 708.227966 1049.921997 848.077698 782.583679 649.344116 851.388428 846.214539 724.341125 913.299377 902.376465 858.493896 923.052368 643.106506 919.328125 848.100098 933.954651 576.693054
Conv_104_param_0 530.283752 455.178345 519.124817 548.859558 545.937073 568.845093 487.478516 503.021606 603.529663 481.472809 731.632385 549.139099 713.716125 465.009979 456.661438 555.584106 617.545105 320.190277 509.315765 382.527313 732.222778 533.899780 578.919189 648.962952 746.368835 808.421814 751.732239 692.888184 621.641418 516.444336 714.161865 664.518250 486.161591 338.997101 767.752869 479.387390 513.926025 610.339966 361.646454 601.489868 600.230652 532.036011 624.392090 509.071930 656.554138 565.378113 427.162018 544.490967 686.253357 396.946625 609.139404 561.383301 501.899017 650.346497 547.789246 697.117371 685.632507 646.264465 398.432648 555.018188 594.870972 471.160065 535.110901 421.504852 531.855347 682.489380 802.609558 525.225098 686.069336 660.072388 660.981262 480.038849 663.023132 493.107391 527.046448 546.115417 756.422668 678.381104 534.013550 467.271362 537.188110 589.288818 746.701538 491.018433 499.121429 535.485962 634.918579 599.729492 614.410095 538.712769 632.213806 745.126160 542.592468 587.671570 497.878510 686.815918 886.709656 431.329437 487.836304 610.345337 723.641602 685.064392 593.015991 569.850342 526.106812 606.870361 705.580933 488.259674 586.045654 442.216553 538.630066 562.338806 761.994324 596.241394 588.952393 831.053162 598.721130 354.574493 617.835144 589.709534 465.836304 490.361603 523.234863 429.562012 716.206055 607.013550 675.917053 518.609009
Conv_107_param_0 361.613800 375.092072 507.265564 251.917160 363.932922 330.488983 314.852661 354.017090 328.618622 314.551544 372.129944 404.498169 284.861542 335.438690 308.746124 481.177582 461.923492 346.273712 354.290070 345.667786 357.057678 382.296448 325.621216 330.476990 442.973816 301.740814 319.652954 359.934143 297.536224 306.112946 329.683990 306.843506 342.447113 327.554413 273.715179 317.762939 325.996979 249.559723 365.948975 293.494263 460.567871 378.723602 433.074707 391.692963 389.555603 397.422302 332.456604 279.987244 308.446777 362.196899 366.526886 349.723419 350.542542 339.437592 344.299561 337.258545 360.971405 430.212555 328.032562 376.790375 346.898163 259.665710 289.503204 392.301300 401.914215 401.879486 295.823669 356.626282 227.911606 275.249023 416.996704 290.382355 308.267731 326.522430 350.333435 336.150269 266.528625 246.206970 347.941162 394.070923 392.567535 389.730469 351.265289 341.456635 289.365845 383.909546 397.842987 331.286621 393.569366 350.796967 287.263489 487.075500 313.010834 393.134583 305.730988 435.437653 399.545837 256.371094 354.251129 309.440521 326.447845 247.909607 336.527008 401.855225 302.682434 302.053192 270.141083 337.979187 379.369812 331.210388 318.252869 294.406189 306.501648 326.777527 369.282440 245.767792 385.283997 308.436981 400.927399 368.054993 238.304260 336.883423 381.438782 265.597839 356.046234 347.969208 287.678650 236.205872
Conv_110_param_0 384.708679 466.036194 367.344055 431.076324 361.104858 291.901367 176.454819 301.310791 390.226715 442.940857 450.905914 216.527206 351.212280 410.793304 403.278717 294.986359 331.803986 383.455688 317.177185 421.471771 380.935730 492.922089 316.945312 473.795319 454.248779 168.429672 522.827026 441.460999 339.468994 358.909119 307.671692 461.965088 578.235962 349.461151 443.043915 291.077698 419.107178 390.675323 345.455109 173.704285 359.038666 342.009094 340.903564 332.248444 458.846436 504.067352 447.387238 222.124481 376.861359 255.075089 391.652802 336.565765 405.473083 313.294830 388.648987 399.260742 380.472290 345.627563 405.376862 359.452240 463.680786 250.814392 500.255798 411.052795 429.943787 395.160278 358.146973 398.512817 411.711670 395.263367 421.030609 433.617462 314.918701 371.092346 261.828217 265.222626 423.219696 273.545441 410.203949 271.247528 296.938751 331.805511 367.696136 290.667603 563.251038 359.465393 391.553558 549.520264 248.179245 291.272095 601.599121 266.403442 301.581451 459.301117 426.367157 296.901733 353.507202 381.046051 434.791199 347.426178 336.785370 455.605530 396.430084 521.905334 445.486694 272.906921 321.842102 462.607605 421.830139 581.635925 353.226044 292.591797 244.373932 288.012085 391.060944 356.609253 544.117065 343.579224 488.927032 439.686218 343.204590 308.716644 360.305359 410.037170 341.128174 383.212128 311.691040 504.280426
Conv_114_param_0 511.124512 468.022766 451.110382 361.941956 366.856110 464.047455 328.789459 445.030182 394.483246 427.613556 396.655945 399.937683 441.668549 416.809814 371.339905 346.795807 383.726654 489.177856 509.102234 414.559174 386.489166 378.042664 524.108276 426.724701 377.212952 420.262573 436.223633 409.235962 486.975830 469.981384 425.890656 511.018280 424.233673 417.449127 384.273895 420.989349 401.796204 396.285828 326.604767 409.394165 409.429047 444.002655 365.284332 320.871094 448.879303 349.051758 493.268158 403.915131 402.348755 345.284973 449.981293 417.405151 436.528168 383.691864 394.588562 377.021973 443.819275 491.357452 428.758698 429.335419 386.291412 393.083008 404.887573 468.667023 435.684631 500.404633 337.200439 441.916962 447.365570 363.298401 327.463257 492.669525 293.195435 456.006226 448.547974 389.962646 402.105804 534.539795 422.440643 400.387970 352.287262 467.239014 459.147369 361.497223 473.981873 495.057190 452.096069 487.011078 452.775543 394.125183 496.891937 385.710175 411.711090 448.675049 553.902954 521.563232 405.481445 436.460114 325.888062 307.019775 331.843933 393.287079 293.659973 386.752289 422.161194 429.408875 453.732880 429.698853 410.005920 428.073639 347.458282 355.939362 384.274628 388.090881 437.869232 408.016266 426.373566 393.817657 440.246094 383.668945 397.973022 356.093872 448.687653 479.740143 349.172272 374.534515 492.099121 391.135376
Conv_117_param_0 357.623230 316.016632 242.895508 333.520325 265.700073 263.161804 372.711090 269.486603 342.923981 300.342499 202.775055 221.888931 279.576447 361.523987 242.820892 264.825317 231.293198 180.957382 308.711426 248.765091 271.231140 241.075089 295.556366 272.085022 298.929626 189.983185 276.433228 233.516769 284.506470 258.536530 193.882523 286.456390 303.544312 285.314178 276.539581 249.769485 334.419739 286.752380 293.534088 321.085632 323.536194 324.910828 239.718430 271.864441 293.290039 361.311218 291.878052 256.930939 330.900513 288.478119 310.271851 196.728577 326.809204 287.851593 255.266541 257.799652 237.590500 260.532196 313.605865 326.870117 258.911682 232.631012 314.628235 256.223572 282.690094 307.712494 325.995483 268.159363 288.494965 312.631042 186.436859 189.055145 301.089172 304.845001 260.729126 300.114319 370.841461 295.768768 313.034424 301.812134 320.713409 295.089447 301.571228 260.807068 351.548279 306.915558 326.630676 277.534119 259.337158 290.717834 262.492645 231.225754 342.230347 221.448441 289.779907 265.576355 263.785492 325.945496 306.591339 254.589905 293.914642 315.919800 299.552887 276.278442 267.725220 197.008911 342.687256 269.101685 253.204666 286.987488 268.786896 242.471130 328.321167 246.747253 305.388000 323.806793 282.308594 274.533844 328.999878 218.105286 267.835541 261.025696 312.053772 335.075592 366.849579 249.057434 309.408691 272.081512
Conv_121_param_0 581.603027 513.369080 629.387085 602.799805 461.986603 684.514404 568.752930 507.622437 524.830933 444.768372 669.610535 450.275940 585.215942 553.778503 500.788696 597.385071 525.049316 456.703430 554.203430 494.650513 507.525879 529.079529 564.130066 470.139771 425.016052 528.383118 499.556244 504.085693 419.191223 504.029297 598.788025 409.244110 546.601990 539.575928 580.471069 612.807312 510.642395 527.939575 550.143799 479.296722 430.755280 459.946442 540.989990 529.112183 426.849548 487.915283 596.454346 535.703308 480.724945 456.903809 545.875427 557.028687 553.053589 413.813660 489.069580 550.133911 557.624695 480.570831 541.923645 634.380432 593.364075 538.732178 625.917236 620.155029 456.348785 694.052124 536.901123 509.895538 581.095825 557.496948 663.421692 600.307556 595.403015 641.318787 483.403534 543.125549 543.045654 551.958435 580.482666 424.053467 641.484863 470.414886 527.147217 730.267517 601.474487 545.566711 530.151001 542.261047 540.852783 531.480164 573.242004 585.328674 549.911133 620.600952 449.242401 511.860779 483.793732 575.988892 372.954071 561.901550 404.734009 551.891052 466.138641 559.548645 637.572571 607.109802 530.933655 596.059692 551.319946 545.393250 527.575256 470.552094 430.123932 536.117554 610.105652 517.603210 525.001160 697.255859 460.491364 540.857178 486.553131 470.326630 433.124939 637.999207 580.583740 593.902100 417.617950 462.930267
Conv_124_param_0 216.453339 243.877075 240.578094 233.429993 252.018448 227.304626 324.330231 311.860962 353.467346 289.762756 214.781250 214.522141 263.527649 235.819366 265.902710 190.324585 279.052185 236.325943 245.676498 233.712631 219.386902 299.909546 268.094482 256.547974 306.597076 249.418365 306.931824 288.570709 280.547180 269.396057 145.004257 285.054138 282.076782 280.331329 259.022095 325.867798 354.266296 229.205826 271.307831 251.519135 173.860107 246.077606 257.928406 371.754822 281.929993 287.677368 267.354309 312.083679 222.082932 292.146210 266.585419 216.391754 238.618134 209.068085 229.306976 297.626129 238.498779 244.199295 184.477417 217.464233 272.405273 171.689178 293.254242 290.474121 277.858521 242.090286 296.688263 218.589935 234.355301 243.848404 232.863708 226.041534 264.857086 170.312592 269.384094 343.916077 212.121674 286.216492 317.331970 269.077332 256.512512 206.610245 289.088898 339.164581 253.413834 216.072952 237.448654 195.837357 242.829880 281.206818 200.333801 309.748993 267.643097 258.669373 193.787399 210.215332 241.013474 249.714859 280.035614 291.272003 266.844727 221.775986 218.756729 239.077972 232.778198 179.262360 328.420929 270.961639 303.985321 317.697845 209.671204 207.657471 219.047806 220.678192 227.649155 227.830902 294.057770 231.780731 317.138367 293.129395 245.533173 210.163452 228.999435 301.138580 348.228455 289.271423 269.417145 207.545456
Conv_129_param_0 937.540833 558.654724 719.445862 757.908691 691.853149 923.823608 882.967651 697.003723 798.355957 853.356750 662.250854 862.480713 842.442810 859.795654 852.501099 692.572388 673.629944 780.163269 756.085388 797.931885 981.001648 975.196655 889.713562 907.796814 821.110046 806.931396 780.172363 810.329468 847.409607 611.345459 856.432983 688.097107 840.292419 703.914917 758.347961 864.213562 851.110901 638.761169 629.556152 698.450378 819.544067 839.299866 920.425842 601.937622 888.593689 850.153564 749.518127 786.223022 658.112305 749.639893 933.129700 805.700806 806.031982 747.167603 717.504395 828.862244 746.719910 780.545654 786.253418 847.217285 843.366821 714.226746 508.785858 707.622986 686.494263 700.388184 868.249512 1084.991211 861.854248 716.673096 698.698120 787.015381 899.261108 949.790894 785.420654 793.458801 790.504639 567.150696 966.367920 745.722961 596.176147 711.548706 759.189758 693.643066 875.947449 693.290100 702.130859 783.376404 831.364014 1058.815674 669.196411 888.663635 921.425720 783.552673 741.305115 907.143433 898.895203 801.115417 862.153503 897.654419 1043.777588 813.832031 683.119263 835.056030 883.008179 876.345459 848.937012 659.011536 973.857056 815.509766 843.242615 868.781250 605.427734 645.162964 1149.750000 775.893677 1005.406494 667.488403 671.435730 1065.028076 806.638977 749.574280 862.885986 733.453064 840.881226 878.885559 760.143494 931.375305 845.201538 832.907288 829.492371 870.398804 761.376465 701.891174 757.366577 886.357056 1006.215210 760.708618 682.875122 889.122192 810.785645 842.568420 1134.061157 742.651672 922.976196 839.351868 874.508728 1101.910645 703.715698 494.278564 1033.883057 721.772034 709.619446 821.678345 767.526184 732.978638 933.639221 770.295532 1019.798462 826.317566 948.932922 690.184448 938.469971 733.586548 644.782654 761.748047 658.898499 749.114502 557.585449 827.187744 795.841125 706.170410 624.448547 825.593689 779.499451 742.173462 860.589417 900.296570 717.589661 1016.953430 884.146973 728.335022 870.693420 834.534302 819.940247 753.537537 907.380737 686.591431 835.370850 645.987061 812.619629 915.022156 750.138794 689.195435 907.403442 641.902161 763.940430 799.319458 898.797119 833.023132 795.234375 645.658142 984.348816 831.985718 639.118347 896.922974 644.924805 760.902832 756.569702 925.045532 852.212341 910.474243 1021.200989 797.635315 739.352051 1003.960266 756.748047 690.490662 797.153137 624.661438 813.992859 836.955994 675.456726 908.113770 904.742920 825.279663 570.340820 932.313660 728.619812 699.171448 761.105408 285.955353 666.140686 654.107117 731.191467 798.413330 851.377563 709.205383 732.320740 892.689453 882.422974 957.371399 686.827026 756.544067 729.813049 704.745422 980.094788 824.024475 709.675659 683.373718 874.739868 820.043091 733.707458 1056.678467 838.922302 770.691589
Conv_132_param_0 2528.310547 2891.268311 1739.057495 2534.994873 2613.182373 3527.365967 1926.130859 2330.500977 2480.194824 2581.169922 2120.470459 2783.880859 2783.984619 2748.191406 2499.351074 2481.896973 3182.350342 2973.663574 2426.598389 3443.737549 3308.607910 2221.222412 2741.108643 2453.867432 2797.879883 2648.518555 2806.967529 2976.783447 3265.592529 2764.312256 2693.365723 2282.101074 2792.640137 2636.035645 2977.141113 2846.670654 2085.340088 2931.713623 2888.437012 2446.129150 3226.329834 2462.976318 2222.123779 3143.394287 2607.615723 2545.422119 2774.515381 3018.695312 2888.592529 2548.639160 2439.029297 2963.674805 2684.054199 2275.395996 2290.447266 1024.986084 2531.703613 3314.522217 2771.768066 2297.657715 2370.856689 2401.591797 2953.109375 3151.955322 2428.581299 2268.869141 3197.984131 2280.085449 2656.778320 2337.949951 1823.901978 2256.243652 2959.016602 2647.791504 3465.349365 2822.175293 3115.999512 2922.407471 3339.905029 2375.052734 2154.129883 2704.211670 2796.528809 2239.045166 3065.892334 2722.785645 2958.958008 2017.593994 2443.037842 1746.251343 2500.588379 2815.192383 1469.614868 2750.181885 1902.759644 2611.160156 2496.123291 2701.707764 2823.977539 1254.768311 3502.223145 2160.498779 3046.048340 2427.019775 2377.198486 3112.167236 2761.583496 2263.109375 2537.406494 2885.165771 2244.405273 2413.647217 2165.724609 2630.524902 3030.540771 2074.112549 2235.737549 2263.831787 2189.370117 1349.530029 2416.522461 2822.696777 2937.628662 1579.575073 2240.920410 2633.654541 2557.724609 3008.701172 2914.864258 2305.110840 2624.807373 2667.391846 2320.681152 2553.663330 1940.075562 2068.916016 3147.414307 2712.170410 2279.503418 2943.586426 2106.392334 2645.948730 2418.647949 2681.772705 2616.842529 2651.961914 2326.845703 3317.882812 2515.323486 3949.775391 3209.068848 1807.082764 2603.286621 2672.444336 2642.938232 3009.439209 3007.116943 2356.402344 3059.065674 2788.487305 3208.781494 2277.478760 2321.146973 2562.160889 2664.955322 2674.442871 2419.623047 3119.266113 2672.605713 3242.339111 3203.801514 3249.398438 2817.300781 2278.002930 2673.614014 2946.833496 3053.084717 2710.246094 2126.597656 2663.721191 2167.598145 2886.103027 2702.951416 2555.672852 2519.382812 2796.376953 2843.450928 2235.383545 2901.275146 2865.337158 2810.197510 2771.970215 1447.879761 2370.176514 1742.665161 3367.765381 2420.437744 3230.582764 2079.751465 2677.763916 3396.216553 2279.983154 2679.010742 3339.168945 2000.221802 2225.078857 3186.256104 2204.629883 3121.737061 3068.717773 2403.709717 2816.762207 2375.386475 2422.152100 2055.241943 3082.303711 2555.859375 2586.277832 2411.323242 2285.375977 2845.164307 2253.570068 3065.067139 2476.938477 2804.428467 3503.441895 2585.406982 2527.816162 2488.213867 2863.143799 2290.484863 2614.746338 2492.304688 2374.704590 3263.102051 1871.450806 2377.113525 3014.128662 2976.242676 2939.540039 2821.214111 2922.143799 2141.065186 2711.959717 2825.496582 2449.074219 2507.649658 3402.968506 2827.981689 1989.441162 2236.109863 1772.610107 1604.870605 3197.478271 2495.087891 2861.353027 1969.629150 3052.348145 2996.168213 2952.981445 2722.511719 2524.852783 3083.400391 2440.265869 2557.262207 2688.410889 2387.636475 2805.146484 2262.836426 3456.758545 3065.719727 2884.052979 2676.296875 2805.630859 2844.523193 2271.307129 2551.287598 2838.027100 2544.137451 2829.453857 2266.599121 2556.310059 2465.177734 2254.774170 3293.464844 3706.194336 2939.074951 2650.264893 2642.750000 2516.433350 2113.437012 2321.279785 2877.502197 2312.651611 2997.188477 2443.011475 3470.260254 3099.269043 2684.955811 2351.778076 1913.140747 2619.472656 3196.712646 1236.504639 2881.700195 2596.509766 2965.533447 2568.785156 2848.176758 2118.561035 2782.809814 2655.017578 2846.610596 2988.311523 2228.358887 2866.471924 2622.841797 2128.939453 2895.582031 2653.344238 2852.282471 2839.443359 2308.419189 2330.215332 2365.478271 2751.577393 2435.674316 2781.241211 2600.866455 2585.903564 2500.700195 3820.717285 2028.743774 2385.624268 2192.828369 2538.058594 3399.623291 2385.722168 2215.076416 2483.267578 3284.994629 3130.553223 3189.376221 2334.624512 2902.428223 2581.129883 2852.865479 2787.592773 2417.759277 2454.957275 2711.594971 2754.992188 2613.315430 2459.195801 2547.173096 3079.770752 2752.549561 2785.244873 3516.968994 2553.089111 2659.704834 2118.176758 2695.373535 2767.447754 2578.062012 2818.479004 1831.197876 2824.819336 2330.330566 2263.159180 3034.700928 2288.849121 3269.127930 2835.061279 2212.414551 2358.016602 2907.269043 2762.513672 2823.927979 2760.353271 2477.104492 3362.145508 2775.257080 2384.044189 2465.362061 2733.589844 1227.848755 2575.920410 3212.177002 3014.507324 2678.168213 3181.929688 2530.317383 3143.420410 2818.014160 2742.665527 3128.887207 2722.809570 2804.890137 2493.960938 1901.302734 2703.712402 2830.234619 2866.200684 2165.677002 2791.932617 1961.711182 2315.795654 2354.488525 2486.546875 2950.984375 2521.598145 2331.140869 2528.891113 2251.317871 2353.048828 2323.591553 2356.457275 2630.963623 2856.586914 2617.149414 2243.784912 2431.635986 2133.878174 2191.344238 2698.054932 3160.513428 2356.184570 2211.090820 2248.849121 2362.735107 2794.461182 2226.960205 3309.324463 2118.756592 2680.422607 2953.850586 3497.455322 2523.767334 2292.055664 2438.832520 3056.932861 2749.087158 2538.026123 3040.951904 2069.244873 3191.226074 2342.458740 2331.270020 2771.830078 3184.329834 2931.807617 2899.897217 2444.348877 2722.728271 2972.541992 3066.999023 2764.314209 2358.787354 2738.747803 2886.493896 2560.494629 2340.180420 3533.448242 2369.673340 2554.509033 3153.195801 2642.079590 2433.426758 2530.511230 3119.802002 2784.431885 2499.014404 2627.244873 2209.163574 3194.778564 2450.086182 2618.064941 3063.019287 2475.381592 2993.865234 2718.177734 2599.047363 1923.756592 3137.467285 2130.272217 2507.774902 2272.328613 3112.912598 2437.566650 2379.567627 2644.682861 2971.793213 2434.680908 2804.566650 2173.713135 2700.341797 2731.893555 2241.086426 2748.704590 2404.506836 2588.846924 2754.711914 2890.658203 3057.931396 3050.675781 2944.112061 2333.468994 3156.719482 2792.143799 2636.443848 1910.938477
Conv_135_param_0 1441.085938 1119.787476 1073.973267 1295.347900 875.615356 1305.021118 1391.426758 996.407898 783.707764 1020.794373 973.145081 856.618286 1091.523926 1045.741455 1123.488525 1134.533325 1161.741211 1127.631104 1231.742554 1127.764648 957.059631 1459.753540 1035.964478 1057.227905 917.978455 1092.923340 991.125610 1043.391602 1039.943726 1007.453735 1115.912720 1160.263672 1003.389282 812.071289 951.178223 1074.421509 1091.254517 1156.539429 1340.104004 908.426514 1414.715820 1100.354248 1019.065613 750.399902 1055.085693 1092.462402 1301.074829 1094.730103 796.911804 1204.626953 1234.530273 938.807007 1053.193481 1160.104370 1146.975220 1025.628052 984.489136 899.082886 711.046021 1206.808594 994.837708 1073.018677 1048.912354 762.693726 1003.059082 926.745300 998.671997 971.290222 981.629883 1112.203735 1404.140137 1016.673645 981.535156 1072.762207 1283.369629 945.454895 1041.256470 1038.224487 937.818115 1094.129272 789.362854 1163.871582 1161.086792 1396.429321 1255.809814 521.121155 1056.583130 1035.725098 868.060608 957.565063 962.837708 1168.952881 1251.455444 1040.545532 1288.871460 1391.733032 1299.271484 1075.308838 647.522461 1055.809937 898.705933 847.272644 1198.863037 812.814697 1116.091675 1034.159668 906.819092 1222.589111 925.750916 696.669434 1395.159424 990.374207 968.217834 1184.753540 1255.949829 1213.674438 1005.260498 1050.901489 1005.418457 769.584717 1030.614990 788.339600 762.213318 1296.165283 1102.578003 1234.777344 832.007446 975.815674 1399.612305 1087.268555 1056.211548 1474.988770 950.783020 1238.008179 1072.026123 1163.524292 1233.723145 1151.638550 948.702209 889.301636 1020.507446 1134.170898 969.709595 957.829163 1082.227051 1182.524658 1269.705200 1038.618774 831.695068 1124.112305 1327.594116 1474.990234 897.399292 1362.017578 1135.242798 1119.467285 967.320374 1594.461548 669.740967 1272.115601 1111.605713 972.984741 1163.915771 983.042480 1272.491089 1085.864014 1122.945923 613.656433 823.643799 773.836304 908.842285 665.855469 870.639526 1001.591064 933.370544 1471.977539 1147.127319 881.477112 1002.443604 1112.392944 867.319458 920.816467 938.019836 1011.097107 1009.307373 1335.020020 971.245361 1081.592285 1035.558472 1306.588867 1115.483398 1299.076904 846.534668 1109.771729 964.030151 1135.134399 1239.133789 670.787537 1106.113647 1114.790771 1134.372803 1208.538208 1258.426270 833.340942 1094.428833 1102.582520 1029.944580 1189.867554 1061.696655 723.545776 1330.415161 1184.467651 1339.242920 857.355103 939.299438 1033.920898 1285.999023 1078.853638 921.656921 1069.292969 1147.059204 1200.041016 1241.300781 910.974182 990.347290 1153.569214 1193.576538 1199.889893 900.060120 1177.865601 673.733093 1292.358276 1027.297485 1177.924438 933.626343 1197.598511 700.434937 1107.555176 1188.124390 925.358154 1017.044373 881.170227 953.449890 902.874207 1001.713806 1111.167358 1338.135010 1208.237915 637.718994 1120.688354 1145.078735 1466.729736 1015.190125 1588.565674 810.303223 1306.837891
Conv_142_param_0 1227.501587 1528.937988 1624.424805 1052.321777 1053.952271 1421.951904 1748.005249 1600.274292 1659.333984 1007.502930 899.253357 1195.224121 1487.865479 1434.678589 1435.125244 1572.665405 1161.843750 1473.515625 1346.965088 1260.151855 1654.285156 1645.916260 1655.340942 1485.615723 1858.413940 1578.617798 1630.842407 1471.306274 1456.818115 1584.423218 2245.249512 1893.669678 1464.794556 1597.363647 1403.239990 1423.245117 1566.062012 1614.862793 1491.763062 1611.295044 1584.365234 1362.557983 1521.077759 672.216553 1473.170776 1507.553101 1302.241333 1625.291016 1577.845825 1205.894043 1116.738159 697.669434 1211.389648 866.657104 1638.344971 1651.672852 1394.494019 1570.782837 1797.093506 1344.913696 2323.803223 1288.052124 1271.607178 1280.331299 1371.095337 1810.828857 2743.294189 1648.558350 834.270020 1473.250488 1103.678467 1675.159790 1473.619263 1258.134888 1373.828125 1363.645142 1199.099487 1566.650269 1298.321777 1413.625488 1737.838379 1594.436646 1759.969360 1203.734985 1920.642822 1191.857666 1286.429199 1499.432373 1385.842773 938.440308 1481.236938 1519.190796 1311.408203 766.887695 3073.750488 1624.690186 1091.409302 1422.002563 1439.704834 1314.016235 1450.467896 1610.948364 1434.726318 1387.483032 1226.900635 1182.704956 1821.454224 1361.545044 1273.933350 1401.640503 1147.463745 1425.832642 1266.918457 2303.869873 1333.636353 1422.688110 1435.447388 1658.168457 2624.297607 1706.149536 1557.697754 1703.143555 1523.666260 1352.575317 1130.774292 1330.757935 1092.982178 1551.587402 1156.509399 1189.846924 1318.028442 886.483765 1371.950073 1090.597046 1601.810913 1555.320435 1485.292603 1285.239990 1411.572876 1677.136353 1461.750488 1441.365723 1939.205566 1300.506958 1127.119995 1762.184204 1078.839478 1491.609863 1473.211670 1303.555298 1757.375610 1490.500366 1468.218262 1327.926758 1773.977295 1418.484985 1679.620239 1646.740234 904.909424 942.802795 2057.059814 1751.570801 2113.445068 1166.900269 1464.025146 1517.155884 1530.392700 1038.399170 993.749268 1285.001709 1714.433350 1972.311523 996.280151 1529.858765 1731.192749 2084.450439 1112.716553 1374.717041 1269.863525 1032.790649 1850.135132 1002.662109 2037.118652 2031.014893 1290.633789 2069.028809 1170.174072 1624.548340 1541.565552 2015.005615 1541.938965 1835.552979 1779.368042 1064.926636 1275.803711 1034.877319 2035.514038 1256.433350 1133.193481 1031.192749 1313.814941 1640.397217 2034.148804 1794.985474 1133.329712 1088.661743 2034.254761 1859.422363 1631.554321 1423.942627 1874.901978 1421.895996 1399.147705 775.351990 1499.522949 1903.789917 1545.374023 1185.260010 1431.315674 1603.826416 1181.885986 1361.660522 1551.066040 1430.336182 1831.447266 1749.968750 1198.180542 1779.998413 1586.481201 1291.484863 902.508057 1637.520874 1306.778320 1387.072998 1361.810547 1660.619019 1443.823975 1225.913818 774.893311 1842.537354 1734.336060 1797.523682 1184.283691 1727.904419 1461.177002 1257.491089 1630.026978 1242.108398 894.604248 1198.385742 2009.632812 1572.321167 1114.534546 1640.562988 1281.004395 2166.359619 956.638550 1637.671875 2058.408936 1451.613281 1132.839111 1535.855103 1860.415161 1219.750000 1508.404053 1567.161255 1538.415405 1250.000610 1412.233765 1214.865112 1173.371826 1766.871460 1405.571045 1198.417969 1660.541382 1393.263794 1497.543701 1353.363159 1673.083740 1882.457642 1224.947266 1421.529419 779.701111 1114.099731 1718.157837 1170.323975 1076.649048 740.540894 2174.398438 1321.536011 1741.323120 1248.313965 1347.835449 1332.817261 885.531677 1192.589966 1374.333496 1630.969604 1642.157349 1680.292358 1141.916382 1762.438354 1477.297363 1056.232788 1837.631226 1294.546631 641.985107 1785.090454 1423.517822 976.759338 1524.208008 1869.766113 1557.185059 1408.052734 1503.419922 1158.929810 2181.151123 1419.027832 1850.786377 1123.970093 1034.459595 1493.054565 1168.498657 1730.240845 2398.417969 1159.142944 1201.083374 1182.863403 1505.344727 1774.370850 1790.464844 1530.057617 1584.824707 783.719055 1490.952026 2969.604004 1398.954590 1520.145020 1697.473755 1281.134888 2146.780762 1518.845947 1691.228638 1222.229736 1751.127808 1822.524780 1410.037354 1184.919800 1448.133179 1846.702881 1089.240967 1221.405029 1571.029053 1539.071167 1629.449829 2422.106445 1399.155273 1339.505371 1020.864014 1397.731934 948.723755 1461.754883 1490.358276 1465.594238 1567.036255 1934.525879 2099.933105 960.245361 1375.261353 1391.902832 1970.514282 1611.528076 1404.486572 1728.024780 1722.667480 1851.037842 1195.637939 1408.639282 1177.124268 1282.040283 2185.285645 2028.615601 1651.460938 1433.746216 1197.709473 889.908447 1545.246826 1758.321045 2065.809326 1215.413574 1392.409546 1537.801636 1077.317993 2410.070068 2182.478027 1569.837280 1062.106567 1030.846802 1659.626465 1161.421143 2069.275146 1522.645264 1590.924316 1709.486084 1676.761719 1364.703857 1617.751709 1547.646240 1240.782227 1539.438477 1744.955933 947.235229 1727.550537 958.475525 1729.306152 1445.547363 1135.197754 2007.797363 1736.117920 967.519226 1291.245972 2242.441406 1283.199585 1572.660156 1610.076660 1830.092285 1126.203613 1578.717529 918.771973 1357.966919 1613.869385 1356.958496 1142.621826 1734.932739 1048.307373 1686.097168 1534.863525 1838.189819 2308.930176 761.298523 1691.158203 1421.894043 1789.249390 910.710083 1544.694702 1331.429443 1374.037964 1468.928589 1290.103638 1273.319946 2210.609375 1623.058838 1735.806030 1611.133179 1723.066162 1199.738159 1379.329102 1179.209595 1378.019653 1678.002808 1444.293945 1922.106079 1826.250244 1772.435791 1751.070801 1928.235229 1343.396973 1115.770508 1051.749268 1537.939819 1376.039307 1830.020386 1769.339600 1820.381958 1721.452271 1710.496948 2728.800537 962.744690 1554.914185 1515.669922 1588.065918 1288.915405 1145.627319 1126.304443 1379.423096 1706.461670 913.660767 1567.348511 1264.250610 1490.096680 1429.473633 1770.770142 1360.042969 1275.576172 1296.733276 1802.593628 1208.879639 1342.666870 1404.135742 1092.525146 1627.520874 1384.593018 1411.241333 1354.223267 1912.772827 1905.768921 1048.742310 2074.838623 1416.632080 1339.535156 1434.224487 1394.945801
Conv_145_param_0 842.029053 897.615601 718.047424 1039.875244 1037.171387 671.238037 973.870728 1032.179565 771.869629 651.543213 791.379883 773.936157 767.972290 732.052246 786.329651 660.767029 895.012512 684.434265 846.225769 742.136841 798.495056 1068.174805 934.712158 1021.975403 768.438477 970.474304 942.262024 816.997620 905.337708 820.541443 1362.374512 855.202332 796.278381 790.344299 887.754028 883.097351 1071.837158 727.328857 968.132629 671.752625 711.369995 854.321838 588.286560 878.974670 1002.950195 783.496094 798.102417 774.434998 803.603943 789.834595 690.402649 663.464478 396.111084 875.890076 784.614746 946.247620 887.584656 824.721802 785.344482 1230.510132 1254.980713 788.469299 1000.801758 686.250061 526.466125 1018.223206 894.552856 569.217651 780.945251 1063.646484 1145.024292 996.145935 948.188599 754.716187 801.846863 741.770508 943.836609 893.609680 662.502502 827.199585 825.824951 854.810547 480.401062 1136.342041 783.698792 833.812927 931.667847 759.772766 825.101257 1057.157837 792.091980 831.204895 424.220795 792.117188 971.435974 836.526367 771.888733 1098.731934 1198.101074 1095.732300 678.649048 948.385437 607.126221 983.744934 865.697327 754.170532 1347.526245 846.445068 1037.122803 841.224670 818.585327 787.660583 609.833191 830.033997 731.971497 646.988281 1207.341919 567.628235 1085.786499 818.457336 815.801025 963.882996 830.262390 629.792358 743.750732 747.195374 956.811340 816.694397 731.423157 713.436035 1069.269287 862.853516 915.030334 1092.318237 864.673035 988.880371 978.609436 797.488098 985.698059 879.685120 886.440186 832.518677 613.730713 1080.185181 879.928528 865.962097 730.624817 1066.819214 566.909363 826.115234 969.248047 928.665588 963.143677 833.790222 973.396973 661.663391 1005.863098 668.929688 922.299683 992.620056 671.814575 707.679260 827.616638 689.984558 802.806641 971.049377 930.021912 853.894775 1189.311768 1027.954346 1183.444580 636.979797 829.237976 856.507996 975.684631 850.124512 766.479980 576.443604 938.257324 549.519348 670.638000 863.957947 972.015747 848.002441 1001.004822 927.432312 624.867798 672.710449 630.144470 741.118469 906.067078 771.953491 855.511169 984.244934 718.586182 1146.523071 968.182129 957.987061 615.229065 743.990173 757.560608 824.709839 992.082825 645.720642 873.539490 901.057617 960.724121 789.008362 791.715210 855.054810 768.788452 668.412537 812.261780 847.546326 889.135620 833.725586 1023.191650 787.124878 883.095642 994.803711 1025.956421 911.388672 734.571289 841.458313 894.309570 967.442139 779.885986 1065.315430 1019.164307 861.565735 1044.433594 1046.312622 769.150879 886.375488 804.043945 604.599182 876.184265 874.076233 831.527771 826.607483 862.409973 799.049683 692.761108 771.788025 835.761536 921.951904 1038.905518 997.712646 800.839661 794.698792 1012.966003 386.447754 807.588440 834.314636 827.920532 793.398865
Conv_148_param_0 924.905090 939.831238 1082.647461 1168.412109 1083.711060 899.164551 699.429321 833.409363 988.897583 777.780090 1072.126465 1077.025635 645.800171 858.230042 942.227905 694.000488 911.278381 782.756409 812.338989 898.909729 858.740234 876.362366 689.160828 976.396545 853.986084 955.819824 1244.830200 1034.727539 905.130310 867.412231 660.119873 588.028137 603.118286 817.942505 849.365173 1036.756836 1104.290771 839.259094 927.370056 1072.373047 708.082458 760.135071 776.431458 648.423584 880.127197 653.491516 1048.845581 935.334656 876.087097 1057.974121 624.791931 740.098633 709.410034 770.219177 1112.378052 1071.809326 830.637878 1006.056885 703.559937 929.902344 655.388855 793.159912 798.978394 785.436218 705.914490 824.732178 711.087708 1307.987061 915.251709 1060.794189 910.191284 733.391846 714.977539 777.228577 848.190857 1304.531982 864.780029 964.716187 802.195190 1053.817383 1168.906860 1110.352417 576.189209 873.711304 1088.876587 828.872986 959.389771 827.895813 1063.331421 1012.363098 1044.125366 861.005188 580.928650 713.183594 1137.211426 875.288818 682.298706 888.337891 910.895264 1067.074097 635.922852 610.871948 637.648132 1222.138794 815.395447 893.341614 806.645813 777.494324 458.169678 928.902039 943.990906 688.521729 796.960754 686.642212 994.610535 1544.076782 894.673950 752.723389 813.854553 1014.911438 1032.849121 563.818115 970.797729 633.385254 1161.960083 927.312317 855.616760 607.232422 1120.989380 911.546692 766.200134 775.004028 956.304077 1192.815552 691.596375 853.742737 561.773499 756.247131 1049.877808 1073.290161 848.245789 946.654358 900.542969 956.788452 1077.621826 754.871033 641.586426 889.516113 660.578491 820.170166 1039.512573 690.830688 680.386536 892.329102 721.028320 936.929077 943.831482 1283.367310 1039.963623 830.970398 1034.766235 754.994995 958.489319 1104.667725 852.107117 833.120300 947.380737 558.451172 956.146118 653.029175 1122.499756 833.987976 1020.864014 661.786072 841.372559 1115.440796 1183.857300 683.951904 837.165039 779.368591 928.219971 736.882507 1246.032959 729.789185 950.995422 809.295166 733.057129 881.506653 835.288208 766.437744 977.981689 948.345825 514.571228 669.322144 697.673523 712.013550 856.858032 981.102417 1037.242188 843.569214 741.506226 903.698914 796.066650 847.700989 952.054260 1245.535522 780.336609 757.356628 855.508301 917.971069 886.232239 870.336243 733.268494 713.743286 1007.209290 1274.807983 987.873535 822.010254 769.522400 772.901794 722.147278 737.628418 804.908691 875.316223 841.381958 971.647888 796.664124 1008.932251 501.672791 894.832886 731.478638 924.405701 709.059692 831.300171 750.539001 971.617737 1107.466187 800.615540 791.156189 847.515930 955.289185 1141.732666 943.530884 782.656860 723.528198 922.010254 899.785706 1070.494385 739.287537 843.576782 681.686523 1025.960693 763.888000 1187.501465 796.580078 1139.261719
Conv_151_param_0 575.439941 484.789612 632.714417 566.707947 498.798584 598.374329 693.352600 698.547424 491.247437 441.495331 710.789246 567.030884 444.612213 555.545349 513.997742 541.264099 708.694885 899.911621 565.127014 515.628784 549.229858 685.986267 558.869568 605.150452 559.193604 724.955688 471.418182 432.265442 438.070801 770.491028 607.692078 490.314514 669.941895 511.520081 522.876587 603.240173 668.631470 488.854919 651.503601 476.793884 471.131836 377.620422 676.996216 604.165100 607.056152 618.843445 550.264526 569.056274 613.804321 622.129883 402.225189 557.910034 492.987274 701.018860 605.637085 979.190918 645.989258 559.112244 680.000732 569.717407 669.604187 602.517456 780.692322 326.045166 608.716858 761.979431 840.184448 479.645081 614.049438 654.855347 480.068695 698.972961 471.045197 675.806824 527.693970 780.746887 579.961914 556.872559 518.983887 767.297852 508.842926 653.030884 542.769165 669.198425 395.824371 543.243896 511.655426 699.112610 564.681824 781.281982 700.283691 981.288330 601.834595 502.643250 687.250854 645.722839 443.095673 840.933838 460.163483 553.010132 611.121582 609.185730 713.532532 675.232910 509.140381 555.295898 464.888153 639.763306 459.888275 662.914612 627.795959 655.285156 872.890320 722.201843 824.366150 745.542236 508.433350 791.947021 530.526794 575.739258 585.644653 585.525879 574.866699 498.915497 679.305420 622.919006 557.214905 689.130188 827.945679 599.916931 604.995850 715.185059 554.986694 682.392639 487.258911 744.322571 486.735596 509.566345 770.597961 559.298767 636.554993 605.250610 603.854919 535.891907 660.358398 748.621948 531.429932 700.423889 570.986206 692.074158 727.262390 692.742065 1018.823608 613.555786 678.112305 687.106995 665.884521 658.454529 760.823181 515.630493 463.243225 658.645874 468.093506 513.161194 401.035431 493.377411 573.891357 689.369141 539.136780 639.656128 510.397186 445.140198 640.484131 574.013123 571.530151 883.396606 791.540161 541.044189 747.651978 496.388275 511.452667 543.156738 486.209564 644.223816 519.530823 580.323181 462.164215 606.725525 774.087952 536.147705 445.862274 611.609924 612.644775 424.365784 503.470734 513.879517 380.582458 922.552673 558.726562 633.734070 503.447540 581.508423 682.181580 492.310699 699.511841 584.333984 661.352295 522.151123 405.047607 600.020935 592.893066 712.952332 655.095703 507.782928 741.738342 592.043579 544.421570 517.964478 482.239166 451.012482 559.856934 344.881866 714.282349 526.267639 745.493042 768.172729 624.747253 592.819641 612.248718 702.060974 578.110840 601.996338 678.796387 543.979797 498.110565 727.228699 539.358582 647.658630 500.858093 724.244568 381.931854 522.710388 816.776245 568.700073 629.321167 543.512634 597.489502 697.851501 549.038025 471.121216 526.605774 605.053284 486.460236 519.031982 750.902161 701.248169
Conv_154_param_0 408.833374 396.277466 474.164062 398.288544 448.129639 403.195038 276.798950 564.665405 432.800934 440.374420 608.977722 527.165283 454.939148 447.966980 461.559265 526.143127 355.763672 347.007690 551.573181 312.495575 456.138367 452.074524 545.395508 566.620483 495.487183 656.036926 604.916565 389.448944 622.137268 428.799530 484.990601 515.232178 459.292145 542.670410 464.468811 492.349670 481.114807 679.449707 599.648804 403.869049 503.231689 412.768677 662.998413 357.800323 584.282349 409.861572 497.811981 528.840942 416.401062 541.625122 539.419800 380.345734 459.282867 485.703003 485.061127 403.964935 442.005920 309.881744 496.720886 461.396240 568.295593 466.369019 349.504883 711.820312 388.658325 507.716339 565.842224 974.055603 474.419312 413.917114 535.422302 362.698181 300.754028 637.271423 467.778351 561.100220 505.554749 764.625183 596.539185 664.364136 257.966614 435.779419 442.362061 528.472534 412.696472 473.687592 446.666962 388.529022 435.371124 559.046204 574.943665 400.960510 346.467865 504.726837 424.333984 423.755859 568.773254 522.647583 428.351868 597.191833 551.494080 571.707886 375.117859 455.029053 413.016113 255.127975 687.905090 547.638184 509.901123 633.078857 537.467651 503.038055 263.072418 474.503479 441.669525 421.663116 425.271759 518.615234 388.102814 524.173950 314.962463 522.356018 336.868164 427.425476 428.971161 626.508972 423.120972 502.683350 441.592682 403.593109 401.025208 589.603882 506.422760 392.218414 662.280884 696.851379 672.674683 458.160339 376.109344 498.257629 481.342102 559.042053 472.678925 492.224792 461.804718 420.390228 280.419373 723.593140 429.899139 617.198242 382.965881 490.109985 482.200500 565.039490 496.350525 524.694641 541.784424 460.496674 300.280823 391.994171 658.057190 452.190979 539.690063 414.433228 413.758057 577.785095 429.487640 445.923859 548.294800 494.888580 254.544998 544.863464 494.508331 444.966888 578.640930 357.599792 387.534119 443.802979 573.138672 507.182373 479.066559 640.670654 342.970184 570.439148 577.426514 402.762726 606.390625 510.750732 414.423004 487.240997 455.097504 442.009308 490.011230 522.729370 554.891296 413.632629 424.273529 460.729828 486.356934 416.170502 438.912354 420.852356 410.826233 583.554688 407.437927 547.136536 394.350128 383.961212 409.284546 486.516083 431.628510 411.999634 473.477966 626.175842 581.993408 513.879395 465.829163 413.089508 648.726685 389.104980 543.721130 301.693329 745.945923 451.454651 439.614990 400.048950 543.278015 419.434845 611.920959 556.380432 622.736145 452.089203 502.694275 434.170471 464.427124 321.890076 636.836060 567.462646 675.898010 407.867279 506.710297 500.966492 517.447754 366.115356 550.479065 413.657471 245.494034 669.772522 586.135559 336.332367 473.430054 409.102661 592.340881 553.804138 489.731323 356.727539
Conv_158_param_0 804.144897 1037.631226 1150.232178 673.443909 801.387024 882.724487 607.239014 790.510925 783.868225 947.501648 1031.836792 1050.031860 738.820129 593.471558 916.710449 965.528442 544.635864 822.094666 861.770081 697.308594 803.518860 639.932678 887.173645 962.342285 610.214844 1258.142090 694.263611 862.180847 631.364380 1233.375000 668.376221 687.560486 884.356140 793.083313 539.432800 903.987427 782.529785 1198.367310 801.867310 860.351135 922.849365 939.399597 874.698120 708.830322 767.084778 702.385376 1095.116089 823.747559 914.758301 866.854004 714.906433 797.800049 873.485229 971.857971 1377.673828 868.937866 896.160278 1013.708130 734.825134 922.432373 1126.594849 690.998474 910.300781 1027.192383 969.307922 980.454773 980.892029 968.159119 842.885498 757.821960 1092.190308 1392.809814 1079.897217 948.620483 864.564270 980.665955 858.356873 1008.951050 752.300842 1114.663696 968.764282 1203.924438 944.940186 991.915527 1101.197388 885.240234 1037.783081 845.381226 1029.042725 672.707275 1174.773193 807.508789 876.632263 867.470154 656.910706 1286.126953 790.258911 755.848694 812.655762 1034.121216 837.796387 842.069275 839.501221 876.369751 799.754517 565.949768 819.793396 737.343079 994.842590 1148.675781 954.240112 630.870972 636.869080 963.388977 1108.332886 919.825073 994.685791 897.909485 781.781250 979.538330 917.038513 966.725708 1044.233276 940.148987 1121.768799 911.942871 913.120483 1057.592896 885.257263 861.646729 925.830383 963.888000 861.461121 878.612427 1153.754883 758.093018 772.229553 952.184326 1065.649414 888.669922 916.812195 943.988464 893.203247 905.414429 786.628662 1035.654663 840.719482 1196.994629 665.898071 1005.014526 716.827759 808.321289 788.475769 1034.507080 879.552307 854.518494 1141.520264 954.382385 675.206177 1090.438599 923.650452 770.343750 1108.767334 912.048706 701.243958 1051.161743 984.595642 778.393494 825.004883 948.025757 1097.172729 979.261475 907.026611 1236.249268 717.044739 800.564270 813.703979 775.058655 385.386108 715.495911 919.709839 978.267700 708.851135 931.979187 788.102295 808.282959 1049.048096 801.500244 924.001343 1338.938599 801.227356 831.953796 551.607788 918.946045 861.111633 777.096191 641.275635 1120.692627 900.767273 726.813660 839.299927 750.768066 914.619385 1232.935791 796.638184 1038.086670 942.384949 727.147339 1074.507202 699.331848 1137.642090 884.982849 949.247375 650.906616 886.002991 1136.240234 1006.302368 815.303040 831.735168 790.315430 830.812988 803.895508 981.222717 916.030823 656.357605 664.006714 780.746887 590.862854 731.345093 973.338318 936.968323 902.158081 921.958496 889.409668 878.743042 574.860229 1063.376953 589.316650 856.410950 953.403687 519.225647 805.196655 807.412903 780.799622 1246.240234 903.231201 695.962158 1025.731323 829.061401 904.364197 1147.548096 677.524780 842.631836 875.792908 772.555664 597.256470 809.825989 783.654114 787.141541 1063.283081 802.815125 880.046387 809.909546 609.068665 804.279419 727.926086 694.847168 562.764038 854.472839 892.714111 1005.784546 735.935669 1142.189575 1012.118835 899.568420 848.432251 665.405457 1169.200317 747.636841 950.933960 499.275818 961.359680 945.005798 812.411987 892.598938 872.911865 1094.550293 554.070801 888.416138 762.678711 857.132996 934.476013 810.269775 858.764465 1168.150513 743.600647 641.878479 1100.550171 1158.827148 860.459106 1125.419800 885.908752 1022.157715 787.340759 964.691956 778.613403 760.723389 881.563354 525.746887 728.578674 837.049133 928.105042 940.386169 807.430908 942.907227 1020.893616 890.948425 1003.078796 727.452637 717.546814 1122.722168 721.077332 735.172485 787.064331 1041.911987 1113.198486 866.537476 1087.649658 889.067017 863.227051 572.868164 855.988953 852.882751 981.770691 859.093567 721.045166 954.512024 771.881104 889.789612 617.593384 985.254272 688.751038 712.450195 882.828064 699.806824 1248.179565 812.093079 829.586914 1115.293457 827.878052 1049.500000 916.850464 534.728333 683.519897 899.582458 1077.173096 732.203369 714.910339 812.452332 1080.656372 1097.926880 1037.738403 696.277283 870.749878 866.318848 947.685181 864.570312 901.057373 1211.170654 679.373291 984.678040 754.186462 884.866943 874.898987 971.425232 902.668579 676.773132 766.554138 433.742279 712.537842 741.174805 703.767334 764.564453 863.736755 814.262146 806.970337 897.255920 898.364929 873.997070 794.060913 885.261169 1012.946655 898.150635 1030.513916 816.360596 997.513000 768.406799 785.197449 904.495178 868.695007 750.833191 767.758423 1102.015625 785.471558 718.600952 638.286499 983.373291 991.990295 713.007385 1054.795532 758.676331 954.321167 835.424866 819.997253 955.714783 481.610596 1027.138672 1053.450684 668.109558 761.425659 981.334106 813.508728 987.648132 812.992493 950.809937 650.270935 825.857117 787.231873 1018.018799 1016.329529 1282.200317 726.068115 782.521729 744.337036 1162.123657 735.502930 844.973755 1234.304443 937.842468 772.163452 842.755493 949.473022 1039.504395 984.566223 809.887329 813.111877 788.090332 1001.593872 442.489960 788.404907 1021.933716 731.804871 906.502991 760.976013 890.327332 810.502808 696.286377 913.866211 777.508484 829.130371 617.109924 1008.306580 832.494446 712.531555 1024.814819 1001.002991 1116.973267 1035.515381 690.802795 887.110352 706.356384 1008.590393 1132.244263 789.553162 913.880005 1091.142822 797.437134 1141.547852 1073.958984 525.317505 810.404114 1167.389526 919.742371 576.061768 725.826294 754.296204 637.238708 1036.396240 676.085815 965.895569 982.062622 735.624023 822.983337 835.980286 891.905945 937.398804 1001.948914 762.617920 710.921753 912.277527 754.855774 591.617676 960.453247 1222.062378 702.992004 910.247131 838.623230 484.100677 988.854919 811.688416 1024.528564 1009.803894
Conv_161_param_0 887.392212 873.800964 1004.494629 1152.701660 905.486084 1063.693481 1026.460083 1313.263428 1092.365356 962.062256 992.540100 962.287537 994.746460 963.767944 1381.316895 1014.587402 1467.315308 1244.337524 1289.175537 1226.227539 1117.509766 1292.921143 787.916992 941.758850 1125.929443 1151.436035 869.048706 1157.704102 1167.852295 1111.074707 1261.541382 1479.484009 818.088745 1493.000366 1056.751221 1413.997803 995.839844 1102.735474 1067.703979 1082.553955 1194.277588 1019.148560 1269.139648 1275.352539 921.368835 1191.283691 861.859558 828.508362 1549.007690 1105.594116 1182.525391 353.302490 1282.137695 1208.877686 824.179993 1300.873535 1257.186157 861.777405 1369.140259 1018.011047 1140.891357 1014.275208 882.462891 1387.478394 1334.022095 1023.347656 1098.008057 1011.033691 758.755432 1051.527100 1338.456909 1151.216919 1695.120605 1463.096680 1110.169678 1121.783936 958.448181 1021.597778 1089.062622 1044.684204 873.582886 969.896606 865.192444 1077.225586 1387.450806 730.865845 1186.348267 686.313354 1010.495544 1020.499939 875.683716 1020.836914 1004.133789 1114.931152 1325.089600 1304.410400 1199.712524 1246.598267 993.591553 856.950745 1036.701172 1041.652832 1009.197693 1174.650024 1008.888123 1038.704102 884.950134 925.175293 1410.422119 1216.769287 1000.374512 1310.333862 1113.139160 1157.516968 1080.170654 1179.920166 1293.157104 798.060669 1178.413208 1116.210205 885.450378 1081.579224 826.459778 1234.826416 1076.219604 1139.779541 990.035095 1042.250244 933.483704 1045.840088 1152.091797 1340.588867 1337.172607 1081.837891 1388.184082 964.871155 855.794250 1053.752930 879.637451 878.157471 932.485840 1115.155151 739.906921 994.627258 982.459229 1444.704346 1030.984497 1224.090088 1112.166382 953.458496 1053.129883 1084.357666 1161.276978 1249.221069 1044.829346 1284.203491 1329.268799 1059.267578 1106.270508 1172.396973 1201.543579 1044.046997 978.266052 1419.992920 1016.968811 1340.251465 1024.238525 723.192261 1035.698364 1052.685791 971.799316 970.906189 1415.445801 866.491089 1197.589600 1000.526367 1271.335327 905.940552 943.670349 1289.614502 1372.530762 1049.484253 1170.184082 867.364197 866.458130 981.826111 932.614441 1134.598389 1012.956543 1195.283447 1078.016113 1099.810181 994.629089 1168.669312 961.877014 401.678925 859.265991 812.294067 1161.757446 1079.161987 1017.184265 1028.241821 1268.729858 1102.953003 966.218262 1306.528198 978.167786 982.788208 981.210388 837.232056 687.466431 1153.255127 988.128723 1269.753662 1100.064941 1164.742432 892.820374 1167.009033 1033.723145 1054.337280 1124.311279 1102.384033 928.758301 1400.705811 767.671082 1231.071167 854.903198 1581.148926 1647.434082 977.944885 1200.608887 979.096863 1201.253418 1285.704346 1154.299561 1212.412231 869.815979 862.653015 1038.098145 944.953857 840.285828 1141.521484 1059.615723 1112.109741 1231.625610 1143.693726 851.356934 870.958984 937.870544 819.515930 1313.399170 1235.675415 1230.575684 1040.182251 1093.755005 934.346191
Conv_167_param_0 791.472351 765.131836 599.519043 741.567993 780.624573 642.754089 682.213196 831.275513 734.446350 910.578918 735.905640 869.526733 792.840576 632.395020 767.124634 718.724426 717.198059 788.103516 600.821777 829.037720 760.872192 631.828857 864.240906 712.822388 783.442200 731.307007 757.301880 733.424500 666.829163 795.994812 925.249512 916.834106 830.836914 650.812622 647.925537 692.710510 813.739685 738.671082 675.367920 736.842346 831.989563 766.982117 931.766541 819.415833 723.711670 1034.950684 744.326294 790.581055 740.258118 784.429565 779.533081 750.581299 617.866394 730.866150 774.828186 1013.121704 820.860474 918.298584 883.349792 799.408997 940.335083 794.953613 756.332031 900.636047 671.137207 804.447388 801.026978 717.063110 787.032104 680.262207 839.347229 660.832886 853.688232 923.638245 994.078613 655.006348 885.104858 860.058716 649.502380 688.568420 677.826843 611.460449 590.227417 743.464050 561.932983 741.856445 732.425659 752.312988 832.162170 750.943665 677.228333 622.630981 908.802917 864.226440 705.497803 781.563416 693.491943 993.820923 690.583557 673.372925 648.333069 748.825134 643.886230 746.315796 681.851685 599.373047 860.216003 579.279358 830.642944 988.852234 840.549438 871.031433 807.876160 839.028137 952.290466 795.296082 975.169189 690.188965 707.638184 759.808838 777.676270 820.791260 881.498535 871.680054 773.895691 897.613831 779.274292 742.268677
Conv_170_param_0 697.581421 812.555054 1007.412292 882.200623 615.869934 1033.721924 865.837036 755.537842 788.034546 850.228699 952.783691 1112.463135 917.088135 846.504333 749.945129 837.143433 877.931946 817.192200 773.014282 690.483582 776.848145 888.715881 976.354309 715.185059 951.040039 806.817505 644.369141 609.593384 1032.467163 782.142822 856.703003 972.037537 737.763672 688.939331 1026.007812 556.456482 673.835388 783.637573 912.759949 719.851440 943.796997 670.023071 764.392273 777.403198 613.964355 959.418030 1115.125244 706.810974 967.495300 709.029907 683.262085 1009.748962 862.155029 942.583801 848.592468 942.104614 754.375671 863.190796 943.398560 752.924805 828.598022 796.802917 838.858765 761.160522 742.211304 696.487976 846.074402 726.102661 736.238159 800.968384 795.882690 670.559326 707.842957 864.956360 782.393127 855.665344 928.146301 861.372375 776.530029 575.433411 762.958557 761.295593 1025.106689 755.823669 952.359863 796.476074 879.285156 786.417542 761.652283 795.460571 780.627441 895.166321 756.296265 779.140015 631.164490 875.050781 819.900391 719.820435 796.548706 733.281921 828.476379 813.899902 1132.211426 862.704102 484.313721 704.818237 599.929321 787.654907 626.211853 740.709839 902.009888 698.974182 977.506775 801.222046 746.222046 774.518250 737.598511 746.867981 798.567505 554.839294 839.741699 712.633606 978.674561 949.176636 785.471191 1161.894775 656.910889 854.376953
Conv_173_param_0 491.016113 383.742798 264.574005 346.272247 412.397644 385.832764 551.133789 442.159851 413.570404 425.878052 299.953430 410.471191 376.091461 409.908417 385.774811 392.448486 508.312042 328.185211 460.208618 409.392090 395.253815 300.072327 397.313416 325.627411 460.225006 415.958740 388.323181 423.191650 432.363007 404.809174 359.078308 404.841583 419.964233 422.215546 415.543762 402.951996 379.288605 464.906433 351.121155 536.637329 427.562073 351.396118 364.682983 406.361237 413.179443 457.369904 380.912781 388.170715 364.448547 454.934509 342.403900 382.751373 473.342834 440.625488 430.792175 394.879364 300.239899 380.743408 352.006927 421.103271 392.902893 386.120453 351.610657 402.585144 402.350189 343.716309 369.612885 367.790314 322.386658 336.438934 530.191101 362.254700 418.560699 413.584015 346.122833 335.968079 434.968536 320.358337 270.179840 399.125580 524.869812 488.174377 314.996429 374.853607 413.594727 333.595978 419.408600 341.490692 387.470215 380.649261 441.230499 428.935028 325.497742 343.425720 447.472961 391.163361 448.820923 422.716278 322.576965 350.705170 444.545135 414.126801 290.553467 433.985809 330.436523 401.360016 352.119415 326.548584 452.418274 403.953156 426.917725 363.553406 403.558655 372.409363 351.323090 384.386200 431.321350 412.324097 374.313843 426.208649 356.877869 320.813477 384.692047 438.579926 282.061737 416.078552 420.214081 458.059143
Conv_176_param_0 271.919830 302.622131 242.699844 292.051971 214.895859 324.109009 304.481689 291.107880 283.780365 346.335205 288.687103 289.548523 333.514618 297.867645 290.676025 331.899261 287.746582 256.079712 381.874786 217.034698 311.439331 299.515503 231.551025 231.542801 307.186432 231.900558 248.487869 310.618439 250.579803 314.937775 228.769363 274.334961 224.753693 242.457916 263.918091 233.333237 262.167175 331.061218 343.616272 273.675568 364.306305 303.933472 247.449295 277.436157 287.997681 289.384918 262.640106 291.436951 271.339417 317.166718 267.075592 284.273743 294.109222 342.252075 266.715363 307.012482 319.625366 333.952454 215.993042 246.846649 266.231842 239.177231 417.203247 298.087006 263.748627 248.186813 322.302368 285.402649 233.100204 293.027191 305.508881 286.947784 234.274078 260.467773 174.243423 269.597870 305.758636 290.671570 235.756287 206.897903 214.671051 243.648804 292.591034 233.870438 287.971008 347.772247 244.795013 281.972076 287.151947 339.388428 205.238708 234.013062 189.142349 271.281311 276.684570 264.939850 217.226395 290.357758 273.865875 287.257416 310.110413 180.831161 210.026215 273.691101 320.538696 279.484344 236.527557 282.476349 287.450562 234.275299 340.095093 254.615601 255.996292 218.608200 245.126007 342.248901 288.866821 307.169922 267.967102 310.655090 287.262451 304.911133 177.404678 244.017609 307.689270 292.643311 284.104004 302.815643
Conv_180_param_0 461.027771 455.473755 531.011780 565.668762 500.955475 597.931213 704.905518 375.912109 488.490295 662.952271 720.564575 518.147583 645.101196 464.508942 686.336487 451.420807 526.426819 434.210083 411.882629 489.447449 521.727295 652.982117 420.228455 470.392822 441.558380 654.486877 532.594177 668.513367 655.094849 538.925781 476.928833 491.458984 660.692627 564.400940 462.379211 592.735107 503.020721 519.692139 536.784973 483.540009 633.613525 713.412964 631.109253 622.288269 478.648041 617.251526 682.137756 428.353607 530.767395 553.840820 563.237305 480.694489 605.507202 487.302765 534.593384 472.548798 450.840271 661.390320 537.178467 415.004883 581.771118 510.537262 674.311157 573.638977 418.030731 559.119141 562.473755 446.017212 523.669373 705.427429 534.703369 639.933838 670.183777 482.330627 465.184814 537.702148 566.748108 505.114471 519.975708 530.242004 601.540771 427.752808 649.201599 525.374878 518.773315 488.684113 477.262451 452.671997 568.676514 434.997284 616.337830 656.459595 521.576294 591.686279 599.020630 535.672241 537.600098 369.679443 608.104309 597.615601 622.532227 664.268799 467.660980 664.848633 521.935364 556.894592 543.257446 604.162048 509.107117 425.327667 523.261108 471.135864 607.592834 630.160828 511.536438 507.847168 590.779236 552.880066 581.896912 579.671509 485.157074 502.326599 680.784729 448.432739 436.180603 627.427856 366.402985 571.786560 574.620117 648.493103 510.296722 465.012115 620.183350 406.932922 429.692017 589.378906 402.403168 466.907684 427.181976 614.379456 607.661804 362.397247 671.580200 640.617249 423.695129 531.418579 577.382263 467.541382 622.814575 592.932922 631.557251 412.799652 517.824951 573.726624 631.446899 586.314392 649.392212 627.672974 676.002319 533.524048 426.142029 441.365509 711.591125 503.652985 604.563538 394.413910 628.124878 436.127838 488.117706 608.409485 626.055542 433.560730 426.212250 538.556519 432.042938 428.877258 440.939941 470.093231 603.615112 502.513550 600.446411 629.120972 497.463806 493.498901 501.425507 493.164795 448.840485 471.843353 473.102112 539.672424 581.445740 539.470093 523.662720 455.333801 578.589294 585.395447 720.271179 430.805206 538.081055 571.391602 549.248230 602.991150 564.119751 454.901581 517.130737 420.590790 436.233917 517.006592 664.338074 556.879700 454.573975 411.126495 510.978546 531.594543 703.976440 607.412354 485.673615 596.852295 602.467651 487.907684 488.012054 599.060547 599.433105 476.167694 744.444580 532.446167 604.788696 471.414551 464.410004 438.502350 540.961121 505.937073 487.439667 486.672394 549.396729 575.239380 517.998840 558.591919 495.793335 410.290192 410.573303 465.392151 471.552612 544.152710 369.697113 461.688232 525.836914 640.210632 500.527008 553.504883 527.928040 563.168823 607.167053 484.794647 631.930237 500.755676
Conv_183_param_0 684.987305 587.613525 693.246765 671.079712 847.050720 627.307068 597.137756 1046.242310 631.521240 600.868286 648.636963 722.388855 840.620789 546.642944 684.483398 562.228516 617.987854 495.165741 657.036621 718.535583 864.484131 570.872131 686.042542 621.915527 867.937561 564.279297 698.495728 608.991455 812.573975 1035.205933 701.080322 594.012512 814.951233 934.695923 608.491699 489.099915 508.075226 624.443481 603.712402 562.086487 587.832642 635.350647 697.890381 748.618225 528.683533 725.959290 750.261475 724.773438 707.344238 642.181274 589.490540 871.588989 682.179321 814.626709 1040.435059 732.668823 877.485352 627.399780 546.649658 692.200256 679.192688 747.218079 556.515625 769.823059 684.355164 788.012756 768.347839 516.856079 715.656982 636.333313 508.661407 732.703369 576.284851 687.483643 710.987610 660.033325 711.854370 699.086731 685.033447 628.533630 506.520050 546.676575 681.644043 651.770813 699.979370 878.891663 737.319580 662.628906 552.325134 612.755066 687.043030 694.887268 479.692749 562.790710 996.249756 724.106934 539.872620 572.632446 629.339783 507.593445 559.097290 710.777832 655.000305 709.001282 542.508057 732.337097 736.895264 443.176422 736.254822 683.591064 565.691650 638.114075 681.943665 686.714355 599.914368 704.465454 479.627380 571.821289 642.178467 879.218689 806.613708 626.957092 800.750610 574.807861 571.093018 597.060547 876.680481 940.290588
Conv_189_param_0 562.733215 685.970581 616.022156 524.689697 609.116943 554.585022 545.640381 444.907532 734.245850 592.438293 453.984192 511.223022 552.724670 577.136108 643.629578 406.732758 707.198547 416.267944 662.076111 495.521271 828.199219 469.345886 436.261597 738.184692 624.169495 418.056000 440.465302 532.465576 604.500793 631.982178 655.124390 564.912292 461.812622 446.915680 462.213043 749.205750 612.468872 577.431519 604.577637 594.999573 490.613434 516.484497 671.177307 567.325806 536.383972 634.911133 658.372925 608.184448 517.118652 450.309814 704.402039 684.836792 711.370667 485.517944 545.713074 817.515259 544.791687 531.856995 649.574829 652.262024 525.980469 536.935608 728.880005 557.655090
Conv_192_param_0 521.070374 902.018066 623.622009 339.812256 599.475708 574.763794 734.846130 314.187317 770.534058 601.291565 376.118378 507.417969 532.934387 428.789825 522.022827 790.329346 547.521423 788.755615 602.697876 459.447906 600.257874 446.253021 629.041748 800.234497 667.450317 811.415161 781.522095 618.389709 709.164673 534.583618 665.903381 664.453674 713.620605 724.374817 521.207275 455.526672 670.350891 626.115723 864.877625 841.471619 633.927551 607.459961 591.435669 624.241699 624.059326 489.109711 601.285034 576.089844 737.492554 556.999268 585.570007 718.506470 478.614044 502.288483 675.168701 543.728455 561.107605 592.855591 620.947510 618.689514 624.645203 593.172180 496.409607 588.358215
Conv_195_param_0 229.201859 244.282471 299.620422 248.963074 283.959625 321.939270 297.621429 319.612762 376.278290 278.441223 378.329956 311.824982 324.691406 266.133820 326.439117 333.910400 304.531708 213.652847 315.961060 258.968658 335.686981 263.783081 223.175552 401.135651 329.486023 348.073975 297.022583 325.131775 228.172104 293.206543 280.165222 310.006500 329.645325 240.588409 329.677063 259.244965 306.865784 218.503922 361.308563 380.023254 238.858475 351.804504 361.371338 338.534882 208.496872 315.582794 336.610779 305.459778 233.426910 253.614532 306.472443 284.820312 223.049377 285.075165 252.626373 313.061676 276.385315 252.189316 287.585876 246.166748 282.303253 303.918457 314.468079 314.381165
Conv_198_param_0 216.437454 319.890503 192.517090 245.225998 309.200378 254.885788 194.012955 156.544388 218.075241 264.367218 207.329117 142.535431 202.719025 216.958603 159.073425 168.396393 248.112335 210.428513 210.170502 197.001862 172.263458 200.939041 194.994644 162.284622 242.649399 186.648163 245.580658 285.344391 191.296127 208.338089 242.501312 145.705200 201.263397 211.486938 230.316193 201.354370 258.077362 292.485260 174.666763 155.546387 198.808594 140.126526 178.082199 303.061768 291.070343 226.685349 201.568665 240.457306 190.839096 277.383667 258.582916 193.963272 191.104828 210.238297 186.371796 182.837585 262.832458 164.850998 247.113953 192.025375 212.926422 200.706802 244.199371 185.792770
Conv_202_param_0 524.722412 438.172516 410.604309 373.394104 431.660461 433.006256 363.116333 468.837646 348.816437 326.943817 318.736481 453.116486 533.471741 385.165741 318.092590 449.255280 358.051727 361.258759 376.436340 424.227905 394.107147 316.557281 415.138794 311.607880 386.444183 499.060760 313.295807 335.040955 417.092773 354.357635 355.465546 374.718353 480.572418 419.810822 471.883942 297.504761 417.532043 275.356293 348.973633 600.407654 396.188416 345.802002 477.515503 355.550690 368.696106 406.214630 505.920715 347.000244 256.862854 275.996368 321.583984 504.475037 340.879242 507.726837 432.291046 450.155212 336.708252 334.623138 442.091736 319.115967 344.390503 425.970001 324.334869 291.916687 420.480133 491.617279 367.920776 349.503693 367.910583 486.370453 433.971497 400.103363 309.456238 398.277618 470.423218 598.542542 307.147217 430.484711 404.504486 349.281494 354.365173 458.529968 393.665314 345.911804 482.342743 335.986786 476.402191 513.386047 385.392883 404.703064 426.314453 415.638153 493.592957 357.309723 347.142395 387.201874 314.513123 377.005890 354.668427 372.913574 461.146667 433.492310 293.022675 326.188721 401.873657 384.722717 231.304718 418.129211 450.301147 276.057343 445.768250 362.110687 382.307739 525.094666 465.648438 246.707855 440.009521 379.310577 468.651947 445.979095 333.324890 502.032318 408.765442 329.221497 427.916779 379.595032 443.536865 329.804901
Conv_205_param_0 1540.952393 1186.960327 1791.589844 1475.792114 1525.164062 1663.606079 1397.813965 1293.033813 1556.899048 1434.417480 1908.186157 1590.221680 1740.167603 1646.921265 1597.535400 2656.028320 1537.619385 1611.749023 1820.225342 1855.639648 1807.727783 1728.547485 2154.087891 1962.806641 1417.400635 2348.058838 1426.298462 1416.477783 1738.893555 1280.824585 1395.322754 1862.548340 1470.894897 1633.139771 1698.018799 1484.083130 2803.234863 1425.986084 1357.932251 2333.148682 2177.335205 1868.251221 1207.978149 1392.606079 1078.488159 1765.250732 1323.881104 1171.593018 1029.508057 1667.113037 1323.624634 1262.014526 1237.220825 1656.253418 1130.581543 2158.552246 1567.064331 1106.799438 1585.109863 1670.263916 1852.826294 1850.510132 1695.749268 1336.534180 1263.992920 1487.345215 1534.888062 1309.689941 1595.198120 1647.740845 1084.663086 1264.276367 1137.327393 1597.992920 1571.437988 1640.608154 2408.705566 1184.801270 1349.418457 1362.362793 1155.837280 1713.721558 1533.522705 1480.314941 1601.356567 1402.376831 1471.033569 1357.899048 1768.012207 1383.532593 2014.952026 1758.085327 1720.960205 1480.739014 1736.266113 1450.884888 1517.729004 1805.247314 1557.635376 1991.359253 1710.324341 1609.965454 1323.353882 1197.938843 1769.747925 1542.860229 1690.566284 2095.234131 2229.420654 2383.332764 1387.747559 1734.497192 1604.083984 2103.019043 2030.578125 1609.702637 1539.338013 1406.651001 1970.056519 1235.822266 1494.595337 1327.812744 1520.691895 1126.827637 1532.428223 1408.308350 1453.763550 1437.826904
Conv_209_param_0 559.279541 702.016174 669.071960 468.468384 663.656982 521.267273 495.074707 585.633667 605.670166 700.584229 725.043884 844.045593 550.570984 677.220459 691.049622 539.276306 505.285309 684.496094 639.063049 618.634705 624.624084 592.053955 642.358276 562.347778 632.997070 694.601929 481.675598 468.864044 641.665710 807.860596 653.379883 452.392456 684.331421 564.277832 589.628113 633.665771 663.839783 588.951965 667.150513 678.653015 630.275269 600.121338 756.376587 583.284973 526.418213 701.756165 732.975159 575.549805 639.264221 503.470428 605.103577 714.019043 616.357910 672.877747 734.956604 479.697601 641.170227 520.375244 716.178101 602.299194 885.915894 685.065186 652.571411 630.176880 443.853851 630.043457 679.901123 499.438599 455.303955 524.008545 601.914795 752.281555 629.564636 572.984863 672.073914 495.872101 596.582031 647.463806 515.839111 694.368713 597.222473 506.748505 637.069519 556.926514 482.643860 501.502686 531.652100 568.483643 633.513672 605.684998 610.257690 547.952026 649.912109 610.989807 631.724060 601.411743 611.244751 512.812683 711.588379 529.110168 519.608276 627.786499 559.021484 633.566284 575.739319 585.074951 836.917664 591.244507 690.769836 615.362061 606.083130 587.598877 528.932068 579.048950 524.515137 630.300110 678.666016 558.962280 722.339600 672.585144 483.298370 586.502930 457.766602 638.930847 580.862854 629.661621 716.080872 744.233215
Conv_212_param_0 524.744690 896.974854 767.153320 584.859802 701.330505 778.891968 582.640747 615.634949 670.332336 683.645508 409.265320 635.518005 665.071594 542.906128 672.073364 821.771118 542.686890 606.185791 665.198364 669.850952 682.714478 652.204895 617.962952 913.161133 699.899170 796.030945 732.541870 876.742554 513.800293 564.026917 519.614990 730.439819 696.031128 807.483459 641.315491 597.866150 586.447815 708.091614 672.550781 545.815552 563.488464 544.157593 617.344421 723.370605 613.713501 744.997559 702.777466 583.514282 612.730774 490.536865 807.363708 891.372192 679.570923 541.502625 748.979126 637.145569 514.798462 643.270325 624.509155 559.041138 680.416077 702.317261 668.597839 658.290466 626.912964 708.191650 737.819641 675.420471 800.583801 638.424011 547.591858 769.333923 559.152344 434.704803 659.462891 808.929321 515.887085 593.909668 571.000732 691.719116 642.744263 772.671509 648.748047 493.706665 760.567566 627.384399 717.883911 644.797913 646.532898 627.399658 694.099121 609.912354 510.450806 636.385315 791.527405 541.520386 673.076599 685.713196 535.777161 574.792908 514.237427 625.082886 632.398682 460.636322 452.315338 667.807068 661.810547 511.329132 421.475189 637.754333 715.642517 714.308716 631.739380 761.736389 973.092773 762.327148 570.232483 595.466248 525.599731 750.309631 750.304443 637.297241 667.187744 560.327332 698.426819 638.466736 572.975708 988.195984
Conv_215_param_0 349.992737 459.458374 580.155884 569.022400 617.218689 437.586853 547.561279 346.445251 308.341248 474.168335 416.552948 462.200195 522.616821 364.958099 551.848389 493.757355 492.484222 540.153687 453.054047 451.219391 517.201721 347.120148 558.374329 669.924377 487.382416 439.784607 526.035950 424.825714 467.660614 381.585602 451.973083 400.334961 456.618561 448.270325 544.145874 362.048859 405.239319 516.112122 562.849487 425.278809 486.650848 390.307068 477.498291 509.048279 434.975311 422.085938 365.226044 455.907013 364.390594 467.786804 572.684448 394.897522 450.167542 464.341370 511.337250 528.705750 480.930023 532.251648 356.636169 513.264893 528.035461 432.791077 498.533051 608.836365 692.661743 524.129089 366.988586 496.286865 476.210754 540.485535 423.528290 455.469482 510.141571 494.506165 481.993103 445.136017 719.580078 381.160828 392.196381 364.734711 507.214142 518.690674 451.772980 638.513123 360.440247 570.416321 473.724609 713.827820 498.630096 524.890686 521.372925 424.627655 436.204346 439.839508 484.214813 488.989166 411.404846 478.571350 572.577393 469.850861 624.732727 388.701721 382.915466 435.133820 426.888641 503.378143 540.711121 495.859253 363.630920 599.015320 485.516235 540.680054 459.642517 595.556641 375.052246 648.014954 482.972931 419.022949 575.790405 395.947510 454.624237 478.975830 399.644165 456.075531 302.406128 601.520996 472.370117 532.008301
Conv_218_param_0 253.927231 285.796295 284.248169 265.762878 299.108887 316.622650 286.245483 410.411560 316.265472 258.790619 283.207611 269.432343 547.564209 268.836456 210.881760 358.134735 307.343384 345.857422 234.432693 328.963013 295.859222 311.974579 312.222656 320.984528 264.062622 286.761108 317.266907 306.748901 265.275360 331.411224 290.567749 246.665131 259.041077 361.416016 261.941040 254.848007 322.057556 318.721863 290.684143 355.662292 424.065582 282.949280 278.122375 240.053680 215.724747 272.736969 306.119354 364.830383 249.731674 340.698914 241.173569 279.541168 308.807129 250.556030 321.018860 344.192383 252.286652 491.734650 308.165436 376.314453 275.773834 232.479980 282.158112 385.056976 357.670441 319.941223 303.939545 258.174713 233.077789 248.454636 347.937439 289.264832 384.048187 267.063293 348.466675 378.637085 316.860748 362.121063 275.972595 369.185913 318.029907 313.560638 224.543076 254.735077 296.803284 234.952301 249.752289 283.440643 286.338165 315.547821 355.234528 278.747894 246.032639 360.433777 246.072571 325.100372 412.015625 365.708069 391.080017 312.561401 301.920105 350.412720 271.259766 319.132050 254.200531 321.917786 317.550323 249.823715 285.350281 259.698303 301.304749 308.650177 334.890930 364.337463 376.770782 350.042786 365.999634 307.360321 321.604340 342.621033 362.555603 270.977448 292.540375 387.346161 244.828308 340.495178 289.045563 331.628418
Conv_222_param_0 596.091553 647.799988 456.706238 660.237061 376.423523 601.251282 528.057251 805.866821 602.314819 539.352173 339.150146 710.375122 629.480469 546.615784 572.198303 696.327515 553.250977 547.098450 445.928986 406.270508 615.498108 553.593140 612.999695 643.437683 572.139526 621.105286 657.331482 519.321228 679.181519 602.706421 619.912415 596.900085 516.082642 641.273438 431.316711 765.074158 623.842224 482.528564 545.915405 744.557861 625.081360 486.592377 568.889709 637.120972 741.730164 652.570801 886.156921 630.461548 551.096130 545.138977 510.079376 644.841797 450.473206 554.953125 573.430054 574.154907 604.481262 876.389160 647.014282 485.660706 511.627563 345.337250 631.445129 679.733826 784.609314 641.549255 455.690063 544.474121 570.065613 767.917969 507.788849 661.851929 737.413269 597.791138 605.372253 473.617676 552.134277 559.064880 477.861511 625.289551 651.243591 638.720032 542.248962 463.798889 604.947571 604.484558 452.116089 677.341736 482.022003 630.921753 535.742798 508.857819 529.550293 582.872925 542.479858 541.315002 595.717285 566.116577 602.838257 456.005890 652.126099 782.559509 540.076782 531.013794 701.823914 540.415771 515.356384 660.583069 579.205750 536.094788 648.831726 487.465424 455.769470 646.404724 612.084167 639.603760 561.919800 628.810486 588.666443 511.037354 596.850342 555.937134 659.302124 588.384155 483.618652 574.763794 500.815125 776.806519 553.066589 612.872009 450.577179 557.231201 388.974976 557.158691 532.992493 441.658600 566.906616 584.663513 524.539856 511.354797 474.765381 563.320374 546.133423 451.681244 526.532715 357.449707 617.776306 649.591675 676.289246 486.739746 729.383240 658.609863 565.533630 678.248108 475.584900 549.179565 566.193481 670.742798 579.415039 602.443726 472.422394 562.232178 678.040161 555.677856 588.802856 545.768311 819.243774 554.087341 627.061768 485.323212 591.463562 551.178833 534.252258 647.581299 579.242249 833.747131 598.168884 405.751587 604.621399 590.131409 885.867004 457.049835 631.897522 547.479736 570.196960 811.963257 565.221252 450.692596 485.382904 658.206970 525.331543 475.759155 580.631958 516.967468 498.153687 489.205902 495.261414 594.327759 343.800812 582.858582 571.153015 568.245300 697.162842 533.171448 678.443420 522.857422 690.889587 575.823608 515.742126 505.363525 666.905701 596.388550 637.417175 625.126038 533.757019 585.061035 453.671478 671.965637 681.068909 582.504089 594.254395 485.621246 531.971619 666.803223 535.604797 567.334534 703.771606 509.288086 588.820618 568.206177 456.768555 523.846497 629.700989 527.245239 618.741028 504.890198 637.158875 467.429474 796.600952 637.277466 704.531799 545.384583 498.965454 675.698486 534.454285 526.250366 678.389893 590.424500 591.363159 487.139771 465.694244 520.296448 651.973877 605.942749 536.227234 612.262634
Conv_225_param_0 2287.504883 2580.197510 2474.050293 2642.371826 2261.089600 2104.927490 1788.053833 2513.140625 2812.419434 2081.600830 2558.069336 2159.399658 3468.886719 2350.668945 2836.789062 2123.605957 2614.916504 2467.855225 1780.400269 3030.233154 2287.376953 2438.990723 2713.329102 2336.571777 2296.301514 2263.537354 2623.041504 2213.390625 2723.675049 2004.711548 3236.198242 2804.097656 2429.432617 2795.439697 2566.316895 2934.534180 2063.774414 2464.275635 2229.458496 1724.227417 1985.240112 2259.795654 1849.917847 1975.534302 2156.562256 2475.102539 2615.905029 2894.166992 2371.702637 2064.864502 1995.109619 2661.364014 2966.313965 2513.614014 2158.083252 1966.531982 2388.257324 2055.173584 2468.016113 3311.008545 2123.839355 2132.088867 2026.203979 2192.754395 3696.128906 2856.484131 2719.615234 2031.603760 3158.556396 2423.880615 2037.650146 2519.704590 2156.664551 2462.610352 2856.802979 2142.699707 2700.815918 2602.966064 2334.651611 2188.843262 2349.061279 2456.735352 2050.651367 2196.410889 3433.455322 2869.390625 1928.093872 2791.700928 1916.370972 2984.238770 2777.727051 2165.222412 2659.191406 2312.374268 2667.985840 2558.072021 2344.250488 3589.734375 3329.861572 2874.243164 1824.304077 2169.483643 2119.163574 2247.805176 2755.101562 2273.730469 2196.940430 2638.887939 2148.954346 2099.702637 1642.297363 1713.682251 2544.075439 2825.289062 1947.462891 2244.415527 2947.777344 2087.815918 2924.009521 2686.465088 1634.277832 2899.435547 2722.361084 2334.262451 2324.896973 2642.493896 2242.645020 2420.177734 2784.842529 2406.988037 2681.422852 2437.727051 2851.170410 2155.356934 2788.041260 2707.316895 1986.959595 2631.592285 2131.844238 3113.595215 2468.527588 2378.113525 1810.262939 2296.526367 2149.399658 2563.233887 2407.328613 2565.750244 2124.358398 1971.337402 2597.974854 2055.078125 2207.996094 2551.490479 2526.221436 2762.810303 1525.215942 2649.785400 1919.583862 2944.383545 2439.012939 2595.222168 3494.000244 2400.278076 2941.378906 2015.415649 2678.559326 2530.309082 2566.427002 2691.144775 3183.003174 2091.027100 2510.473145 2180.432617 2528.274658 2685.037109 2635.599854 2695.892090 2246.917725 2160.473145 2126.381348 2089.229248 2871.062500 2149.159180 2346.966797 2314.020508 3069.595703 3056.416260 2809.611084 2597.352539 2251.618408 2129.802734 2201.410156 2882.791260 2742.040039 2184.708984 2130.834229 2821.729736 2477.809570 2410.265381 2328.114502 1990.299561 2869.018555 2386.581543 2806.093750 2501.147461 3050.387451 1378.177368 2614.910645 2451.078613 3029.415039 2439.623779 2301.147461 2699.592285 2422.128662 2445.616455 2575.991455 1944.415039 2170.249756 2553.306885 2635.449707 1966.399414 2571.478760 2297.599609 1983.651245 2663.259766 2679.718018 3484.933594 2180.712158 2867.080811 2568.149170 2245.086914 2459.270020 2389.402344 2352.191895 2465.529297 2196.233398 2686.261230 2284.744629 2739.652100 1954.733032 2414.647705 2027.204712 2845.152588 2024.567871 2144.807373 2197.261719 2220.349609 2424.583496 2373.085205 1893.570312 2487.644287 3047.258789 2384.720947 1936.507935 2375.645020
Conv_229_param_0 979.131165 649.716187 929.164734 838.629333 1013.723633 789.039429 1019.933838 953.520386 647.169983 901.132629 753.698181 805.914490 754.827759 1011.553040 902.956665 814.665955 787.513550 1215.246582 918.741394 944.089294 605.702698 900.676880 1033.111206 853.840698 826.319702 1015.159363 651.073914 995.926453 919.272339 752.919739 952.371826 851.586670 763.786438 668.760681 1054.432861 956.462280 869.654541 948.759399 764.354797 889.928894 850.025085 930.596863 970.547180 1048.986938 778.092651 802.718689 774.247192 1057.544312 1005.594727 632.061646 853.842896 735.602417 898.078674 942.753235 806.241638 927.013489 648.255310 756.262756 939.866272 769.932373 804.888062 749.474731 1052.367554 952.421936 870.217346 784.872253 766.505127 749.161987 936.521851 866.357422 894.433472 673.396729 755.400574 1129.028320 675.561462 941.855591 585.079529 814.486816 856.412292 807.149414 790.381714 896.850586 766.788635 874.019104 708.142761 1022.965637 966.067139 1039.021484 782.843872 415.213318 824.126953 889.010376 1007.481689 620.281982 795.924438 828.064575 706.655396 823.486328 962.239441 914.140869 896.077942 887.346863 1011.246460 912.134216 958.783569 738.716553 1029.109375 971.094543 894.683472 961.524109 634.219116 930.131409 838.927673 770.854797 1006.169006 721.359680 895.439270 1006.996765 833.664429 862.787109 742.415222 658.824585 970.790344 932.387024 787.454956 949.412170 721.364075 1069.849365 869.899353 1019.093079 650.717529 731.501831 737.538940 719.932495 988.397888 725.132935 965.913635 799.231506 791.805664 1092.737061 780.194824 521.495605 800.844421 543.102539 418.542206 1272.502686 949.275879 752.742310 829.756287 1013.748230 810.211426 959.061646 1116.785645 789.728577 954.611267 1080.848755 822.806519 950.356628 778.474915 789.358337 804.406189 922.622681 822.619507 836.596680 682.851379 732.140320 1215.478149 667.676086 1006.955505 907.290405 683.381653 908.187927 863.995117 897.270447 778.489014 844.233582 813.225586 908.941345 775.729553 669.213806 851.573608 701.235962 843.102173 578.692261 1162.775635 776.115967 762.611572 873.849548 731.870544 778.455444 832.716248 704.476074 888.837341 690.230347 700.837830 773.457458 807.465515 793.428406 880.296814 842.121033 946.344910 859.114746 775.186401 805.425903 1087.455200 609.268860 1003.711853 1019.753906 805.797180 813.456360 828.612122 738.709106 735.635803 1049.843262 808.031799 694.039001 799.109802 986.753479 864.150391 887.192505 903.001465 647.657532 637.422363 860.980103 949.802917 741.068604 782.145508 612.893616 603.234924 1048.205688 673.160889 734.763184 826.324524 941.402344 931.100403 866.173157 687.791382 955.635437 724.789429 826.375244 1118.398071 881.390869 1220.646606 818.986816 848.459229 796.411987 976.154419 812.779358 789.583130 958.913574 1044.500122 980.130493 940.635559 923.457825 909.240295 927.645935
Conv_232_param_0 1069.875122 929.011780 704.298462 859.102112 1092.141968 895.564026 1169.104614 1168.218628 912.249390 908.057556 974.321289 509.447632 863.760925 889.837341 908.959290 749.822998 1222.627075 697.700256 1102.816406 1214.972412 763.162842 914.919739 1032.797363 1039.680420 1122.156494 1238.536865 1186.261597 882.307495 1104.358398 978.697693 926.409119 1231.462646 1028.696289 645.202942 1087.722656 850.320557 1562.587524 936.130371 731.269287 1078.955444 1399.233643 1165.551514 1006.515625 1140.322510 948.927551 1088.508301 1109.877075 1104.138916 1196.596313 487.418671 988.137390 1234.579102 1018.724548 1099.566040 1069.229248 1187.571533 742.762878 1149.390015 895.065308 1042.727417 1275.464844 955.678284 789.036255 800.724182 1022.040222 1232.630859 1239.485718 902.282532 1289.144043 1252.910278 1238.391113 1486.860596 984.170471 825.536682 946.807800 1374.681763 1062.332764 967.572937 981.614929 1077.878662 1040.279175 935.042725 1136.301147 1087.666870 1236.290894 1026.136475 1199.312256 971.440125 941.123230 989.590637 1099.770020 1174.268677 1105.978882 927.857605 1221.373169 1133.541504 1196.898315 1180.350342 1053.194336 902.823853 1023.778503 1375.217041 996.501160 1202.910645 994.233887 1205.646851 904.694214 1214.922241 777.328796 1145.816772 1118.869385 1337.523682 1096.917480 1202.244873 939.008362 1239.554077 934.404480 929.026062 666.798401 1001.074036 785.199951 1388.150024 963.915344 1091.309204 1105.007446 737.475464 783.982544 1101.182129 867.616943 1054.935303 799.007935 1179.226440 905.238770 840.071533 1193.103760 1161.742920 1018.260498 1266.549805 1206.919434 1063.160156 1215.711426 1036.185669 1134.692627 872.778381 852.735718 898.478699 1297.891968 845.499695 1060.103149 1121.589844 1393.661621 768.025940 977.360291 911.994141 1004.006287 846.610718 917.710266 1051.666138 900.856567 1019.267944 834.923096 838.711670 991.541382 1003.105164 1047.112427 825.557251 952.460999 712.457703 862.920166 813.239685 1334.597656 1148.264526 835.944275 1096.206177 943.226807 822.124573 1067.943604 1055.370239 1118.802734 1101.317017 1087.594604 1216.741821 1110.618896 887.979431 1174.132324 1293.374512 1100.362671 970.587952 863.801880 1041.707764 1298.619019 1083.215942 900.305054 1007.310852 1128.119141 798.906677 1323.696289 737.965271 853.767761 1171.835815 871.833130 1173.711670 1031.405273 1282.309814 696.486877 1305.645142 906.805054 934.474121 1290.086304 1076.572266 1295.875854 903.682861 1192.143311 968.762207 1058.792114 1125.335815 1054.114624 658.995483 959.109741 1761.977173 1344.028442 1258.598755 830.918884 801.257324 1085.467773 1423.048584 937.675293 992.472961 887.630554 869.461243 1068.874023 1449.765259 938.761414 1227.151489 818.586853 1279.836670 1039.430542 1074.821777 844.124023 803.769714 1013.990540 1175.182617 1190.574219 1346.527100 1358.316040 1114.535156 970.856506 853.042908 902.824036 1057.683228 1023.869568 770.343933 1351.522217 873.281250 1315.629517 963.955688
